{
  "version": "1.0",
  "truncation": {
    "direction": "Right",
    "max_length": 1024,
    "strategy": "LongestFirst",
    "stride": 0
  },
  "padding": null,
  "added_tokens": [
    {
      "id": 0,
      "content": "<|endoftext|>",
      "single_word": false,
      "lstrip": false,
      "rstrip": false,
      "normalized": false,
      "special": true
    },
    {
      "id": 1,
      "content": "<|padding|>",
      "single_word": false,
      "lstrip": false,
      "rstrip": false,
      "normalized": false,
      "special": true
    }
  ],
  "normalizer": {
    "type": "NFKC"
  },
  "pre_tokenizer": {
    "type": "ByteLevel",
    "add_prefix_space": false,
    "trim_offsets": true,
    "use_regex": true
  },
  "post_processor": {
    "type": "ByteLevel",
    "add_prefix_space": true,
    "trim_offsets": true,
    "use_regex": true
  },
  "decoder": {
    "type": "ByteLevel",
    "add_prefix_space": true,
    "trim_offsets": true,
    "use_regex": true
  },
  "model": {
    "type": "BPE",
    "dropout": null,
    "unk_token": null,
    "continuing_subword_prefix": null,
    "end_of_word_suffix": null,
    "fuse_unk": false,
    "byte_fallback": false,
    "vocab": {
      "<|endoftext|>": 0,
      "<|padding|>": 1,
      "!": 2,
      "\"": 3,
      "#": 4,
      "$": 5,
      "%": 6,
      "&": 7,
      "'": 8,
      "(": 9,
      ")": 10,
      "*": 11,
      "+": 12,
      ",": 13,
      "-": 14,
      ".": 15,
      "/": 16,
      "0": 17,
      "1": 18,
      "2": 19,
      "3": 20,
      "4": 21,
      "5": 22,
      "6": 23,
      "7": 24,
      "8": 25,
      "9": 26,
      ":": 27,
      ";": 28,
      "<": 29,
      "=": 30,
      ">": 31,
      "?": 32,
      "@": 33,
      "A": 34,
      "B": 35,
      "C": 36,
      "D": 37,
      "E": 38,
      "F": 39,
      "G": 40,
      "H": 41,
      "I": 42,
      "J": 43,
      "K": 44,
      "L": 45,
      "M": 46,
      "N": 47,
      "O": 48,
      "P": 49,
      "Q": 50,
      "R": 51,
      "S": 52,
      "T": 53,
      "U": 54,
      "V": 55,
      "W": 56,
      "X": 57,
      "Y": 58,
      "Z": 59,
      "[": 60,
      "\\": 61,
      "]": 62,
      "^": 63,
      "_": 64,
      "`": 65,
      "a": 66,
      "b": 67,
      "c": 68,
      "d": 69,
      "e": 70,
      "f": 71,
      "g": 72,
      "h": 73,
      "i": 74,
      "j": 75,
      "k": 76,
      "l": 77,
      "m": 78,
      "n": 79,
      "o": 80,
      "p": 81,
      "q": 82,
      "r": 83,
      "s": 84,
      "t": 85,
      "u": 86,
      "v": 87,
      "w": 88,
      "x": 89,
      "y": 90,
      "z": 91,
      "{": 92,
      "|": 93,
      "}": 94,
      "~": 95,
      "¡": 96,
      "¢": 97,
      "£": 98,
      "¤": 99,
      "¥": 100,
      "¦": 101,
      "§": 102,
      "¨": 103,
      "©": 104,
      "ª": 105,
      "«": 106,
      "¬": 107,
      "®": 108,
      "¯": 109,
      "°": 110,
      "±": 111,
      "²": 112,
      "³": 113,
      "´": 114,
      "µ": 115,
      "¶": 116,
      "·": 117,
      "¸": 118,
      "¹": 119,
      "º": 120,
      "»": 121,
      "¼": 122,
      "½": 123,
      "¾": 124,
      "¿": 125,
      "Â": 126,
      "Ã": 127,
      "Ä": 128,
      "Å": 129,
      "Æ": 130,
      "Ç": 131,
      "È": 132,
      "É": 133,
      "Ê": 134,
      "Ë": 135,
      "Ì": 136,
      "Í": 137,
      "Î": 138,
      "Ï": 139,
      "Ð": 140,
      "Ñ": 141,
      "Ò": 142,
      "Ó": 143,
      "Ô": 144,
      "Õ": 145,
      "Ö": 146,
      "×": 147,
      "Ø": 148,
      "Ù": 149,
      "Ú": 150,
      "Û": 151,
      "Ü": 152,
      "Ý": 153,
      "Þ": 154,
      "ß": 155,
      "à": 156,
      "á": 157,
      "â": 158,
      "ã": 159,
      "ä": 160,
      "å": 161,
      "æ": 162,
      "ç": 163,
      "è": 164,
      "é": 165,
      "ê": 166,
      "ë": 167,
      "ì": 168,
      "í": 169,
      "î": 170,
      "ï": 171,
      "ð": 172,
      "ñ": 173,
      "ò": 174,
      "ó": 175,
      "ô": 176,
      "ā": 177,
      "Ă": 178,
      "ă": 179,
      "Ą": 180,
      "ą": 181,
      "Ć": 182,
      "ć": 183,
      "Ĉ": 184,
      "ĉ": 185,
      "Ċ": 186,
      "ċ": 187,
      "č": 188,
      "ď": 189,
      "Đ": 190,
      "đ": 191,
      "Ē": 192,
      "ē": 193,
      "Ĕ": 194,
      "Ė": 195,
      "ė": 196,
      "Ę": 197,
      "Ě": 198,
      "ě": 199,
      "Ĝ": 200,
      "ĝ": 201,
      "Ğ": 202,
      "ğ": 203,
      "Ġ": 204,
      "ġ": 205,
      "Ģ": 206,
      "ģ": 207,
      "Ĥ": 208,
      "ĥ": 209,
      "Ħ": 210,
      "ħ": 211,
      "Ĩ": 212,
      "ĩ": 213,
      "Ī": 214,
      "ī": 215,
      "Ĭ": 216,
      "ĭ": 217,
      "Į": 218,
      "į": 219,
      "İ": 220,
      "ı": 221,
      "Ĳ": 222,
      "ĳ": 223,
      "Ĵ": 224,
      "ĵ": 225,
      "Ķ": 226,
      "ķ": 227,
      "ĸ": 228,
      "Ĺ": 229,
      "ĺ": 230,
      "Ļ": 231,
      "ļ": 232,
      "Ľ": 233,
      "ľ": 234,
      "Ŀ": 235,
      "ŀ": 236,
      "Ł": 237,
      "ł": 238,
      "Ń": 239,
      "ãģ": 240,
      "ãĤ": 241,
      "ãĥ": 242,
      "ãĢ": 243,
      "ãģ®": 244,
      "ãĢģ": 245,
      "ãģ«": 246,
      "ãĢĤ": 247,
      "ãģĦ": 248,
      "ãĥ¼": 249,
      "ãģŁ": 250,
      "ãģĹ": 251,
      "ãģ§": 252,
      "ãĤĭ": 253,
      "ãģ¨": 254,
      "ãĤĴ": 255,
      "ãģ¦": 256,
      "ãģ¯": 257,
      "ãģĮ": 258,
      "ãģª": 259,
      "ãĥ³": 260,
      "ãģĻ": 261,
      "ä¸": 262,
      "ãģ¾": 263,
      "ãĤĮ": 264,
      "ãĤ¹": 265,
      "ãĥ¼ãĥ": 266,
      "ãģĭ": 267,
      "ãģ£": 268,
      "æľ": 269,
      "ãĤĬ": 270,
      "ãĤĤ": 271,
      "ãĤī": 272,
      "çĶ": 273,
      "äº": 274,
      "ãĤ¤": 275,
      "ãģ®å": 276,
      "ãģĵ": 277,
      "å¹": 278,
      "ãģķ": 279,
      "ãĥĪ": 280,
      "ãģĹãģ¦": 281,
      "å¤": 282,
      "ãĥ«": 283,
      "ãģĨ": 284,
      "å®": 285,
      "ãĥ»": 286,
      "å¹´": 287,
      "ãģĤ": 288,
      "ä»": 289,
      "ãĥª": 290,
      "åħ": 291,
      "ãĥĥ": 292,
      "ãĤ¢": 293,
      "ä½": 294,
      "ãģĹãģŁ": 295,
      "ãģı": 296,
      "åı": 297,
      "ãĥ©": 298,
      "åĲ": 299,
      "åĪ": 300,
      "ãĤ¯": 301,
      "æĹ": 302,
      "æĸ": 303,
      "ãģį": 304,
      "ãĤĪ": 305,
      "éĸ": 306,
      "ãģĻãĤĭ": 307,
      "ãĢĮ": 308,
      "ãĢį": 309,
      "éĢ": 310,
      "ãģ¾ãģĻ": 311,
      "æĹ¥": 312,
      "è¡": 313,
      "ãģ£ãģŁ": 314,
      "ãģ¦ãģĦ": 315,
      "ãģĬ": 316,
      "ãģ®æ": 317,
      "è¨": 318,
      "ãĤĵ": 319,
      "ãĥ¼ãĤ": 320,
      "åŃ": 321,
      "ãĥ³ãĥ": 322,
      "éģ": 323,
      "ãģķãĤĮ": 324,
      "åĽ": 325,
      "è¦": 326,
      "ãģĳ": 327,
      "ãģł": 328,
      "ãģĿ": 329,
      "ãĤģ": 330,
      "ãĥ³ãĤ": 331,
      "ãģĭãĤī": 332,
      "ä¼": 333,
      "ãĥ¬": 334,
      "ãĥķ": 335,
      "å¾": 336,
      "ãģĵãģ¨": 337,
      "äºº": 338,
      "ãĤ·": 339,
      "ãĤĴæ": 340,
      "ãĥŃ": 341,
      "çµ": 342,
      "ãĤĦ": 343,
      "ãģ©": 344,
      "ãģĤãĤĭ": 345,
      "åľ": 346,
      "å¤§": 347,
      "åĭ": 348,
      "èª": 349,
      "20": 350,
      "æĿ": 351,
      "ãĤ¿": 352,
      "æľĪ": 353,
      "åº": 354,
      "ãģĪ": 355,
      "æĪ": 356,
      "ãģ¤": 357,
      "ãģ§ãģĻ": 358,
      "ãĥĹ": 359,
      "å½": 360,
      "æī": 361,
      "çĻ": 362,
      "ãģ£ãģ¦": 363,
      "ãĤ£": 364,
      "çĽ": 365,
      "åł": 366,
      "ãĤ«": 367,
      "åĬ": 368,
      "æľ¬": 369,
      "ãĤ³": 370,
      "å¸": 371,
      "æ°": 372,
      "ç´": 373,
      "ãĤı": 374,
      "éĥ": 375,
      "ãĥĨ": 376,
      "ãģªãģĦ": 377,
      "éĩ": 378,
      "ãĥ¡": 379,
      "åĩ": 380,
      "æĻ": 381,
      "å°": 382,
      "ãĥŀ": 383,
      "åĨ": 384,
      "ä¸Ń": 385,
      "ä¸Ģ": 386,
      "å±": 387,
      "æķ": 388,
      "åį": 389,
      "ãģ¡": 390,
      "å¼": 391,
      "æ¥": 392,
      "æŃ": 393,
      "çī": 394,
      "èĢ": 395,
      "éĽ": 396,
      "è¡Į": 397,
      "ãģ¦ãģĦãĤĭ": 398,
      "ãģĽ": 399,
      "ãĤ¸": 400,
      "ãģĹãģ¦ãģĦ": 401,
      "æĢ": 402,
      "åĮ": 403,
      "ãĤµ": 404,
      "çĶ¨": 405,
      "19": 406,
      "ä¼ļ": 407,
      "å¿": 408,
      "ãģ§ãģ¯": 409,
      "åŃ¦": 410,
      "çļ": 411,
      "ãĥī": 412,
      "ãĥĩ": 413,
      "ãģ¿": 414,
      "ç·": 415,
      "åĩº": 416,
      "ãĤ¦": 417,
      "ãĤª": 418,
      "æĺ": 419,
      "å¯": 420,
      "è»": 421,
      "ãĥ¥": 422,
      "èĩ": 423,
      "ãĥĲ": 424,
      "ä¸Ĭ": 425,
      "å·": 426,
      "æĻĤ": 427,
      "åĲĪ": 428,
      "ç¤": 429,
      "çĶŁ": 430,
      "ãĥĸ": 431,
      "ãģ«ãģ¯": 432,
      "ãĥ£": 433,
      "äºĭ": 434,
      "ä¿": 435,
      "åī": 436,
      "åĽ½": 437,
      "éĻ": 438,
      "ä½ľ": 439,
      "ãģ®ç": 440,
      "åĵ": 441,
      "ãĥĭ": 442,
      "çķ": 443,
      "çļĦ": 444,
      "ãģ®è": 445,
      "éĸĵ": 446,
      "ãĥģ": 447,
      "ãģ¨ãģĦ": 448,
      "ãĤ¨": 449,
      "æĸ¹": 450,
      "æ³": 451,
      "åł´": 452,
      "ãĤŃ": 453,
      "åĪĨ": 454,
      "çĻº": 455,
      "ãģªãģ©": 456,
      "ãģ¨ãģĹãģ¦": 457,
      "ãĥł": 458,
      "åĳ": 459,
      "ç§": 460,
      "æĽ": 461,
      "æĶ": 462,
      "ãĤĪãģĨ": 463,
      "åħ¥": 464,
      "èĩª": 465,
      "èĢħ": 466,
      "ãģĶ": 467,
      "ãĥ¼ãĥ«": 468,
      "ç«": 469,
      "ãģ«ãģª": 470,
      "å¥": 471,
      "æł": 472,
      "éĥ¨": 473,
      "æ¥Ń": 474,
      "ãģ§ãģĤãĤĭ": 475,
      "ãĥĥãĤ¯": 476,
      "å®ļ": 477,
      "ãĥĥãĥĪ": 478,
      "éļ": 479,
      "ãĤīãĤĮ": 480,
      "ãĤ§": 481,
      "åľ°": 482,
      "æĦ": 483,
      "ãĥĬ": 484,
      "ãģ«ãĤĪ": 485,
      "å¾Į": 486,
      "ãģ°": 487,
      "è©": 488,
      "ãģĤãĤĬ": 489,
      "ãĥ§": 490,
      "éł": 491,
      "è²": 492,
      "éĸĭ": 493,
      "ä¾": 494,
      "ãģ¨ãģĦãģĨ": 495,
      "ãģķãĤĮãģŁ": 496,
      "ãĥĳ": 497,
      "ãĥĵ": 498,
      "ãĤ°": 499,
      "è¿": 500,
      "ãģ§ãģį": 501,
      "ãĤ¹ãĥĪ": 502,
      "ãģĺ": 503,
      "è³": 504,
      "ä»£": 505,
      "ç¤¾": 506,
      "é«": 507,
      "ãĥ¼ãĥĪ": 508,
      "00": 509,
      "ãģ¾ãģĹãģŁ": 510,
      "é¡": 511,
      "åĭķ": 512,
      "è¦ĭ": 513,
      "æµ": 514,
      "æĸ°": 515,
      "å£": 516,
      "éĿ": 517,
      "çĲ": 518,
      "ãĥŁ": 519,
      "ãĢİ": 520,
      "ãĢı": 521,
      "ãģ¨ãģª": 522,
      "æ´": 523,
      "ãģŁãĤģ": 524,
      "åĲĮ": 525,
      "é«ĺ": 526,
      "ãĥ³ãĤ°": 527,
      "çľ": 528,
      "ãģĦãģ¦": 529,
      "æľĢ": 530,
      "æĮ": 531,
      "åŃĲ": 532,
      "ãĥ³ãĥĪ": 533,
      "ãĤ»": 534,
      "æīĭ": 535,
      "201": 536,
      "æĪĲ": 537,
      "ķ·": 538,
      "æ¸": 539,
      "æĬ": 540,
      "å½ĵ": 541,
      "éķ·": 542,
      "çŁ": 543,
      "åŁ": 544,
      "ä½ĵ": 545,
      "è£": 546,
      "åĨħ": 547,
      "æĪ¦": 548,
      "åīį": 549,
      "çĽ®": 550,
      "èĥ": 551,
      "æ§": 552,
      "æĢ§": 553,
      "çı": 554,
      "ä½¿": 555,
      "æ²": 556,
      "ãģĹãģ¦ãģĦãĤĭ": 557,
      "æ°Ĺ": 558,
      "ãĤĤãģ®": 559,
      "ĠĠ": 560,
      "ç¶": 561,
      "åĵģ": 562,
      "ãĥĢ": 563,
      "æİ": 564,
      "æĹ¥æľ¬": 565,
      "ãĥķãĤ": 566,
      "ä¸ĭ": 567,
      "éĢļ": 568,
      "ãĥ¼ãĥī": 569,
      "æ©": 570,
      "è¦ģ": 571,
      "ãĥĻ": 572,
      "èŃ": 573,
      "å¯¾": 574,
      "ãģļ": 575,
      "èĪ": 576,
      "çī©": 577,
      "ãģ¸": 578,
      "çı¾": 579,
      "ãĥĿ": 580,
      "çĲĨ": 581,
      "çĦ": 582,
      "ç©": 583,
      "ãĤį": 584,
      "ç¬": 585,
      "ä»¥": 586,
      "çĶ»": 587,
      "åĲį": 588,
      "ãĥ¢": 589,
      "éĸ¢": 590,
      "ãģ¾ãģ§": 591,
      "ãģ¾ãģŁ": 592,
      "åħ¨": 593,
      "è¡¨": 594,
      "ãĥ¼ãĤ¹": 595,
      "å¸Ĥ": 596,
      "åĽŀ": 597,
      "åĮĸ": 598,
      "ç«ĭ": 599,
      "èī": 600,
      "ãĥ³ãĥī": 601,
      "ç¨": 602,
      "æĥ": 603,
      "ãģĦãģŁ": 604,
      "çŃ": 605,
      "ãĥı": 606,
      "ãĥ¼ãĥł": 607,
      "æ±": 608,
      "ãĥį": 609,
      "âĢ": 610,
      "å®Ł": 611,
      "æı": 612,
      "é£": 613,
      "ãĥ©ãĤ¤": 614,
      "åĬĽ": 615,
      "ç¾": 616,
      "è¨Ń": 617,
      "è¨ĺ": 618,
      "åĢ": 619,
      "å¤ļ": 620,
      "å®¶": 621,
      "ãĥ¯": 622,
      "ãģĵãģ®": 623,
      "ä¸ĸ": 624,
      "ãģ³": 625,
      "ãģ§ãĤĤ": 626,
      "er": 627,
      "ãģĵãģ¨ãģĮ": 628,
      "ãģ®ãģ§": 629,
      "ãģ¦ãģĦãģŁ": 630,
      "åĤ": 631,
      "..": 632,
      "æ³ķ": 633,
      "æīĢ": 634,
      "10": 635,
      "åº¦": 636,
      "ç¥": 637,
      "ãģĿãģ®": 638,
      "å§": 639,
      "æ¨": 640,
      "ä¸»": 641,
      "ä»Ĭ": 642,
      "æ©Ł": 643,
      "ä¹": 644,
      "èĥ½": 645,
      "ãĤ¹ãĤ¿": 646,
      "ãģĹãģ¾ãģĻ": 647,
      "ãģĵãĤĮ": 648,
      "åıĸ": 649,
      "ãĥ¼ãĤ¸": 650,
      "æŀ": 651,
      "éģ¸": 652,
      "in": 653,
      "æĿ¥": 654,
      "è¨Ģ": 655,
      "è¾": 656,
      "åĪĿ": 657,
      "åľ¨": 658,
      "æķ°": 659,
      "æĿ±": 660,
      "åİ": 661,
      "æľŁ": 662,
      "çĤ": 663,
      "åķ": 664,
      "æĢĿ": 665,
      "ãĤĮãĤĭ": 666,
      "ãĤ±": 667,
      "ãģĹãģĦ": 668,
      "ç¬¬": 669,
      "æ§ĺ": 670,
      "éģĵ": 671,
      "ãĥĥãĥĹ": 672,
      "on": 673,
      "æĸĩ": 674,
      "ãĤ½": 675,
      "ãģĿãĤĮ": 676,
      "ãĥ§ãĥ³": 677,
      "200": 678,
      "åł±": 679,
      "éĢ£": 680,
      "éŁ": 681,
      "åĬł": 682,
      "ãģķãĤĮãĤĭ": 683,
      "éħ": 684,
      "å±±": 685,
      "çİ": 686,
      "ãĥľ": 687,
      "è¼": 688,
      "ãģŃ": 689,
      "éĩĳ": 690,
      "ãģķãĤĵ": 691,
      "ãģªãģı": 692,
      "çĶ³": 693,
      "çĶ°": 694,
      "å¤ĸ": 695,
      "èªŀ": 696,
      "ãģ£ãģ¦ãģĦãĤĭ": 697,
      "èģ": 698,
      "è»Ĭ": 699,
      "æĺİ": 700,
      "ãģĴ": 701,
      "ãĥļ": 702,
      "ãģ¹": 703,
      "ãĥĨãĤ£": 704,
      "æ¯": 705,
      "çī¹": 706,
      "è§": 707,
      "çµĮ": 708,
      "ãĢħ": 709,
      "åıĹ": 710,
      "ãĥĦ": 711,
      "æ¬": 712,
      "ãĤ¬": 713,
      "åĪ©": 714,
      "ãĥİ": 715,
      "ãĥĶ": 716,
      "ãģ»": 717,
      "ãģĬãĤĬ": 718,
      "çŁ¥": 719,
      "æ¼": 720,
      "æ®": 721,
      "èĤ": 722,
      "ãģĭãģ£ãģŁ": 723,
      "è«": 724,
      "ãĤĮãģŁ": 725,
      "åħ¬": 726,
      "ãĥ¼ãĤº": 727,
      "ãģĤãģ£ãģŁ": 728,
      "èº": 729,
      "ãĥĽ": 730,
      "èµ": 731,
      "å¼ı": 732,
      "æĸĻ": 733,
      "æ´»": 734,
      "ãĤĪãĤĬ": 735,
      "ç½": 736,
      "ãĤº": 737,
      "åĸ": 738,
      "å°ı": 739,
      "ãģķãģĦ": 740,
      "ç¶ļ": 741,
      "åĵ¡": 742,
      "éĢģ": 743,
      "çµĲ": 744,
      "ä»ĺ": 745,
      "æķĻ": 746,
      "ãģ«ãģ¤": 747,
      "å¿ĥ": 748,
      "çµĦ": 749,
      "ãĤ¤ãĥ³": 750,
      "ãģłãģĳ": 751,
      "ãģ«ãģĬ": 752,
      "ãģ«ãĤĤ": 753,
      "æĽ¸": 754,
      "éĿ¢": 755,
      "ãģ¾ãģĽ": 756,
      "è»į": 757,
      "çĿ": 758,
      "å¹´ãģ«": 759,
      "ãģĪãĤĭ": 760,
      "an": 761,
      "ãĤĩ": 762,
      "ãĢģãĢĮ": 763,
      "å¤ī": 764,
      "æ¥½": 765,
      "çķĮ": 766,
      "ãĥĹãĥŃ": 767,
      "ä½į": 768,
      "ãĤ¤ãĥĪ": 769,
      "ä¸į": 770,
      "ãģ§ãģįãĤĭ": 771,
      "çĦ¡": 772,
      "æĦŁ": 773,
      "éĲ": 774,
      "ãĥĩãĤ£": 775,
      "å»": 776,
      "æĥħ": 777,
      "å¥³": 778,
      "è¶": 779,
      "çł": 780,
      "åĴ": 781,
      "åĭĻ": 782,
      "éĽĨ": 783,
      "æº": 784,
      "ä¿¡": 785,
      "åĥ": 786,
      "åģ": 787,
      "æŁ": 788,
      "éĲĥ": 789,
      "ãģ®å¤": 790,
      "ç·ļ": 791,
      "ãĥķãĤ¡": 792,
      "ç´Ħ": 793,
      "éĽ»": 794,
      "ãģ¾ãģĽãĤĵ": 795,
      "çĤ¹": 796,
      "ãĥ¼ãĤ¯": 797,
      "12": 798,
      "å£²": 799,
      "ãĥ³ãĤ¹": 800,
      "18": 801,
      "é§": 802,
      "å³": 803,
      "æ°´": 804,
      "éĩİ": 805,
      "æµ·": 806,
      "ãĥªãĤ¢": 807,
      "åı¯": 808,
      "å·Ŀ": 809,
      "ãĤ¶": 810,
      "æľī": 811,
      "ãģĳãĤĭ": 812,
      "ãĤ®": 813,
      "æĦı": 814,
      "or": 815,
      "ä¿Ŀ": 816,
      "çļĦãģª": 817,
      "æł¡": 818,
      "åĦ": 819,
      "ãģķãĤĮãģ¦ãģĦãĤĭ": 820,
      "é¦": 821,
      "æĭ": 822,
      "ãĥ³ãĤ¿": 823,
      "åĴĮ": 824,
      "åĲĳ": 825,
      "äº¬": 826,
      "å¾Ĺ": 827,
      "éļĽ": 828,
      "åĪ¶": 829,
      "çľĮ": 830,
      "å¢": 831,
      "èº«": 832,
      "ãĥ¼ãĤ·": 833,
      "ãĥ¼ãĤ¿": 834,
      "ãĥªãĥ¼": 835,
      "åºĹ": 836,
      "éĮ": 837,
      "ãģĿãģ®å": 838,
      "éĺ": 839,
      "11": 840,
      "è©±": 841,
      "ãģĮãģĤãĤĭ": 842,
      "ãģıãģł": 843,
      "å§ĭ": 844,
      "ç½®": 845,
      "ãģ¦ãģĦãģ¾ãģĻ": 846,
      "éĩį": 847,
      "æŃ£": 848,
      "è§£": 849,
      "èĢĥ": 850,
      "ç®": 851,
      "ãģĹãģĭ": 852,
      "èĭ": 853,
      "çķª": 854,
      "éģĭ": 855,
      "ãģ¨æĢĿ": 856,
      "éĢ²": 857,
      "ãģ«ãģ¤ãģĦãģ¦": 858,
      "ãĤĮãģ°": 859,
      "ãĥ´": 860,
      "æħ": 861,
      "ãģĦãģ¾ãģĻ": 862,
      "ç·Ĵ": 863,
      "çĬ": 864,
      "ãĤĢ": 865,
      "å¹³": 866,
      "ãģķãģĽ": 867,
      "çĶ£": 868,
      "å³¶": 869,
      "è¿ĳ": 870,
      "en": 871,
      "åĭĿ": 872,
      "é£Ł": 873,
      "åħĥ": 874,
      "ar": 875,
      "ãģıãģłãģķãģĦ": 876,
      "ãģ«ãĤĪãĤĭ": 877,
      "çĽ¸": 878,
      "å®ī": 879,
      "å²": 880,
      "æĴ": 881,
      "è±": 882,
      "åıĤ": 883,
      "é¨": 884,
      "å¤§åŃ¦": 885,
      "è¨Ī": 886,
      "åĮĹ": 887,
      "èªį": 888,
      "éĮ²": 889,
      "æ°ĳ": 890,
      "ãĤ¤ãĥ«": 891,
      "Ġ(": 892,
      "æ¼Ķ": 893,
      "ãĤĥ": 894,
      "ä»ĸ": 895,
      "ãģĹãģ¾": 896,
      "ä¸ī": 897,
      "åĳ³": 898,
      "at": 899,
      "è·": 900,
      "æĶ¿": 901,
      "ãģĹãģ¦ãģĦãģŁ": 902,
      "é¡Į": 903,
      "ç¥ŀ": 904,
      "ãĤĩãģĨ": 905,
      "ãĤĴæĮ": 906,
      "è¥": 907,
      "æ¬¡": 908,
      "æĥħåł±": 909,
      "çŃī": 910,
      "ãĤĪãģĨãģ«": 911,
      "ãģ¨ãĤĤ": 912,
      "å¿ħ": 913,
      "ãĤ²": 914,
      "å¿ľ": 915,
      "åŀ": 916,
      "åİŁ": 917,
      "å¼ķ": 918,
      "ãĤ´": 919,
      "ãģłãģ£ãģŁ": 920,
      "å½¢": 921,
      "äºĪ": 922,
      "ãĥķãĤ©": 923,
      "éŁ³": 924,
      "ãĥ¤": 925,
      "å°ĳ": 926,
      "åħĪ": 927,
      "éħį": 928,
      "è¾¼": 929,
      "ãģ«ãĤĪãģ£ãģ¦": 930,
      "æ±º": 931,
      "çĻ»": 932,
      "ç¢": 933,
      "ãĤŃãĥ£": 934,
      "é¤": 935,
      "éĥ½": 936,
      "ãĤ¹ãĥĨ": 937,
      "åķı": 938,
      "ãģ®ãģ¯": 939,
      "ä¸ĸçķĮ": 940,
      "ãĤĵãģ§": 941,
      "ãģĻãĤĭãģĵãģ¨": 942,
      "es": 943,
      "it": 944,
      "æ²»": 945,
      "ç¤º": 946,
      "çµĤ": 947,
      "ç¿": 948,
      "ãģ«ãĤĪãĤĬ": 949,
      "åħ±": 950,
      "èª¿": 951,
      "åĪ¥": 952,
      "è¡ĵ": 953,
      "ãģ«ãģªãĤĭ": 954,
      "çļĦãģ«": 955,
      "ä»»": 956,
      "ãĥķãĤ£": 957,
      "åł´åĲĪ": 958,
      "ãģ¨ãģ¯": 959,
      "èĳ": 960,
      "åı·": 961,
      "ãĤīãĤĮãĤĭ": 962,
      "ãģ®ä¸Ń": 963,
      "ĠS": 964,
      "ç±": 965,
      "æł¼": 966,
      "å·¥": 967,
      "ãĤ¢ãĥ«": 968,
      "æĹ¥ãģ«": 969,
      "ãĢĲ": 970,
      "ãĢĳ": 971,
      "ãģ«å¯¾": 972,
      "çĿĢ": 973,
      "ãĤĵãģª": 974,
      "ãģ®åħ": 975,
      "ç©º": 976,
      "ãĤĴè¡Į": 977,
      "å½¼": 978,
      "çĹ": 979,
      "ãĤĬãģ¾ãģĻ": 980,
      "ç¯": 981,
      "ãĤĪãģĨãģª": 982,
      "ç¢º": 983,
      "ç§ģ": 984,
      "æĮĩ": 985,
      "åºĥ": 986,
      "çĶ³éĲĥ": 987,
      "åĪĩ": 988,
      ")ãĢģ": 989,
      "åŀĭ": 990,
      "ãģĹãĤĩãģĨ": 991,
      "ä½¿çĶ¨": 992,
      "å¸¸": 993,
      "ãģĿãģĨ": 994,
      "æŀľ": 995,
      "äºĮ": 996,
      "èŃ°": 997,
      "è£½": 998,
      "æĶ¾": 999,
      "ãģ¶": 1000,
      "ãĤĴåıĹ": 1001,
      "ä»ķ": 1002,
      "ãĥ¼ãĥ³": 1003,
      "å¼·": 1004,
      "æĮģ": 1005,
      "15": 1006,
      "æĻĤéĸĵ": 1007,
      "ĠĠĠĠ": 1008,
      "åĨĨ": 1009,
      "èī¯": 1010,
      "åĮº": 1011,
      "èĬ": 1012,
      "çĽ´": 1013,
      "al": 1014,
      "çĶº": 1015,
      "ä½ķ": 1016,
      "ãģŁãģ¡": 1017,
      "ãģªãģĭãģ£ãģŁ": 1018,
      "ãģĤãĤĬãģ¾ãģĻ": 1019,
      "åı¯èĥ½": 1020,
      "è¥¿": 1021,
      "ç¾İ": 1022,
      "äº¤": 1023,
      "ãĥ¼ãĥĹ": 1024,
      "ä»ĭ": 1025,
      "ãģŁãģĦ": 1026,
      "èª¬": 1027,
      "çĬ¶": 1028,
      "ç³": 1029,
      "ãĤ¸ãĥ£": 1030,
      "ãĤĵãģł": 1031,
      "èĩªåĪĨ": 1032,
      "åĽ£": 1033,
      "åĸ¶": 1034,
      "éĢł": 1035,
      "é¨ĵ": 1036,
      "ãģĹãģı": 1037,
      "ä¾Ľ": 1038,
      "ãģ®å®": 1039,
      "ãĤģãĤĭ": 1040,
      "çľŁ": 1041,
      "ãĥ¦": 1042,
      "ãģ¨ãģªãģ£ãģŁ": 1043,
      "ä¾¡": 1044,
      "ä¼ļç¤¾": 1045,
      "ãģĳãģ¦": 1046,
      "åĪ©çĶ¨": 1047,
      "æµģ": 1048,
      "åĦª": 1049,
      "ä¼Ŀ": 1050,
      "le": 1051,
      "æľ¨": 1052,
      "æ¤": 1053,
      "å®¢": 1054,
      "30": 1055,
      "ãģ§ãģĤãģ£ãģŁ": 1056,
      "ãģ²": 1057,
      "¾Į": 1058,
      "éĻĲ": 1059,
      "ãĤģãģ¦": 1060,
      "æĺł": 1061,
      "ãĤµãĥ¼ãĥ": 1062,
      "çı¾åľ¨": 1063,
      "è¼ī": 1064,
      "ç¸": 1065,
      "å¤©": 1066,
      "æĤ": 1067,
      "ãģ®åı": 1068,
      "ãģªãģĮ": 1069,
      "ãĥĴ": 1070,
      "ç¨®": 1071,
      "ãĥªãĤ«": 1072,
      "ãĥ»ãĥ»": 1073,
      "å®¹": 1074,
      "è»¢": 1075,
      "é§ħ": 1076,
      "éĻ¢": 1077,
      "åı°": 1078,
      "ãĤīãĤĮãģŁ": 1079,
      "ãĥģãĥ£": 1080,
      "çİĭ": 1081,
      "199": 1082,
      "å·ŀ": 1083,
      "ä¸ĩ": 1084,
      "åŁŁ": 1085,
      "åĤĻ": 1086,
      "ic": 1087,
      "åŁº": 1088,
      "åıĸãĤĬ": 1089,
      "ç´ł": 1090,
      "èī²": 1091,
      "åıİ": 1092,
      "åŃĺ": 1093,
      "ãĥĹãĥ¬": 1094,
      "å½¹": 1095,
      "ãĤ¯ãĥ©": 1096,
      "ãģ§ãģĻãģĮ": 1097,
      "å¤ļãģı": 1098,
      "ãĤ¿ãĥ¼": 1099,
      "å¿ħè¦ģ": 1100,
      "åı£": 1101,
      "åķĨ": 1102,
      "ãģªãĤī": 1103,
      "å±ĭ": 1104,
      "æ¨©": 1105,
      "èĤ²": 1106,
      "éģİ": 1107,
      "ä½ı": 1108,
      "çĶ±": 1109,
      "å¡": 1110,
      "æĸ½": 1111,
      "ç¦": 1112,
      "å£«": 1113,
      "ãĥ¼ãĥŀ": 1114,
      "åįĹ": 1115,
      "åĨį": 1116,
      "ãģĸ": 1117,
      "èĦ": 1118,
      "ãģĭãģª": 1119,
      "Ġt": 1120,
      "çĭ": 1121,
      "ãģĹãģĭãģĹ": 1122,
      "ãģĪãģ¦": 1123,
      "ĠC": 1124,
      "ãĤıãĤĮ": 1125,
      "ç¹": 1126,
      "ãĥ³ãĥĨ": 1127,
      "éĸĢ": 1128,
      "ç¾©": 1129,
      "ãĥ¥ãĥ¼": 1130,
      "å»º": 1131,
      "èµ·": 1132,
      "ãĤµãĤ¤ãĥĪ": 1133,
      "ãĥĸãĥ©": 1134,
      "ãģĹãģ¦ãģĦãģ¾ãģĻ": 1135,
      "æĿ±äº¬": 1136,
      "è©¦": 1137,
      "17": 1138,
      "ãģ®åĲ": 1139,
      "ãģŁãĤģãģ«": 1140,
      "æĽ²": 1141,
      "st": 1142,
      "ãģĲ": 1143,
      "ãĤ·ãĥ¥": 1144,
      "16": 1145,
      "ãģ®ä¸Ģ": 1146,
      "ãģ§ãģĤãĤĬ": 1147,
      "ç§»": 1148,
      "éģĶ": 1149,
      "æ¡": 1150,
      "è¬": 1151,
      "ãģ¨ãģªãĤĭ": 1152,
      "ãĥ³ãĤ¸": 1153,
      "çģ": 1154,
      "ãĤ·ãĥ£": 1155,
      "è³ª": 1156,
      "æ¶": 1157,
      "ãĤ¯ãĥª": 1158,
      "æģ": 1159,
      "ãģªãĤĭ": 1160,
      "ãģ«ãģªãģ£ãģŁ": 1161,
      "ãģ«åħ¥": 1162,
      "ç·¨": 1163,
      "ä¼ģ": 1164,
      "æĽ´": 1165,
      "ãĤĴè¦ĭ": 1166,
      "ç©¶": 1167,
      "he": 1168,
      "å¥½": 1169,
      "åĳ¼": 1170,
      "ä»¶": 1171,
      "ãĥĥãĥī": 1172,
      "ãĤģãģŁ": 1173,
      "åĤ¬": 1174,
      "ãĤ°ãĥ©": 1175,
      "çĶ·": 1176,
      "ãĤ¦ãĤ§": 1177,
      "è³ĩ": 1178,
      "éī": 1179,
      "ou": 1180,
      "ãĤ¢ãĥ¡": 1181,
      ")ãĢĤ": 1182,
      "ãĥ¼ãĤ·ãĥ§ãĥ³": 1183,
      "éļĬ": 1184,
      "èĹ": 1185,
      "åĻ": 1186,
      "è³ŀ": 1187,
      "ç§ĳ": 1188,
      "åı¤": 1189,
      "ãģ«éĸ¢": 1190,
      "ãģªãģĮãĤī": 1191,
      "ãģĻãĤĭãģ¨": 1192,
      "ãģ®åĪ": 1193,
      "çīĪ": 1194,
      "æ·": 1195,
      "åĢĭ": 1196,
      "ãĤĴæĮģ": 1197,
      "¢¨": 1198,
      "åŃ¦æł¡": 1199,
      "Ķç©¶": 1200,
      "æŃ´": 1201,
      "ãģİ": 1202,
      "è¦³": 1203,
      "ãģĹãģ¾ãģĹãģŁ": 1204,
      "èı": 1205,
      "ä½ľåĵģ": 1206,
      "ãģĵãģ¨ãĤĴ": 1207,
      "çĪ": 1208,
      "ãģ®ãģĬ": 1209,
      "ãĤ·ãĥ§": 1210,
      "ãĤ¿ãĤ¤": 1211,
      "æĬĢ": 1212,
      "æļ": 1213,
      "âĢĿ": 1214,
      "éĩı": 1215,
      "ç³»": 1216,
      "ãĥĺ": 1217,
      "ä¾ĭ": 1218,
      "re": 1219,
      "ä¸¡": 1220,
      "è£ħ": 1221,
      "ãĤ¢ãĥ¡ãĥªãĤ«": 1222,
      "æŃ¢": 1223,
      "è¦ı": 1224,
      "ãģ«ãģĬãģĦãģ¦": 1225,
      "éĬ": 1226,
      "ãģ£ãģ¦ãģĦãģŁ": 1227,
      "ç·ĴçĶ³éĲĥ": 1228,
      "æĻĤä»£": 1229,
      "ãģĳãģŁ": 1230,
      "é¤¨": 1231,
      "éŃ": 1232,
      "çµ±": 1233,
      "ãģ®æĻ": 1234,
      "é¡ŀ": 1235,
      "ç´¹": 1236,
      "Ġ-": 1237,
      "ãģ¨ãģ®": 1238,
      "åľŁ": 1239,
      "æĶ¹": 1240,
      "ãģĵãĤį": 1241,
      "åįĬ": 1242,
      "ĠA": 1243,
      "åı²": 1244,
      "ç´¹ä»ĭ": 1245,
      "æĿĳ": 1246,
      "ãĤ¢ãĤ¤": 1247,
      "ãĥ³ãĥĹ": 1248,
      "åįĺ": 1249,
      "æ§ĭ": 1250,
      "åģ´": 1251,
      "ãģĿãģĹãģ¦": 1252,
      "ç®¡": 1253,
      "ç·ı": 1254,
      "ãĥĹãĥª": 1255,
      "ĵãĤ¹": 1256,
      "ĠM": 1257,
      "ro": 1258,
      "14": 1259,
      "åħī": 1260,
      "å¤§ãģį": 1261,
      "æĴĥ": 1262,
      "æľĿ": 1263,
      "æħĭ": 1264,
      "é¢¨": 1265,
      "ĠP": 1266,
      "åĲĦ": 1267,
      "çĻ½": 1268,
      "è·¯": 1269,
      "ac": 1270,
      "ãģ£ãģ¨": 1271,
      "ãģĿãģ®å¾Į": 1272,
      "ãĤ·ãĥ§ãĥ³": 1273,
      "ãģĭãĤĬ": 1274,
      "å±ķ": 1275,
      "ãģ®ãģĭ": 1276,
      "ãĤ¸ãĤ§": 1277,
      "ãģ§ãģįãģ¾ãģĻ": 1278,
      "ãģĪãģŁ": 1279,
      "æĹı": 1280,
      "ä»¥ä¸Ĭ": 1281,
      "éģķ": 1282,
      "æĶ¯": 1283,
      "ä¸ĬãģĴ": 1284,
      "çŁ³": 1285,
      "èĭ±": 1286,
      "ãĥ³ãĤ¯": 1287,
      "ãģ©ãģĨ": 1288,
      "...": 1289,
      "éĸĭçĻº": 1290,
      "ãģĦãĤĭ": 1291,
      "¦Ĥ": 1292,
      "ãģķãĤī": 1293,
      "æĿĲ": 1294,
      "åĪ¤": 1295,
      "13": 1296,
      "ãĤµãĥ¼ãĥĵãĤ¹": 1297,
      "ãĥķãĥ©": 1298,
      "åĳ½": 1299,
      "ãģ£ãģ¦ãģĦ": 1300,
      "èªŃ": 1301,
      "æŁ»": 1302,
      "å¸«": 1303,
      "is": 1304,
      "åĳĬ": 1305,
      "ãĥķãĤ§": 1306,
      "æ³¨": 1307,
      "198": 1308,
      "!!": 1309,
      "èĲ": 1310,
      "ç²": 1311,
      "ãĤ¯ãĥĪ": 1312,
      "ãģ®ãģĮ": 1313,
      "æĦĽ": 1314,
      "åĻ¨": 1315,
      "ãģįãģŁ": 1316,
      "ãģĦãģĦ": 1317,
      "ĠT": 1318,
      "æĥ³": 1319,
      "éĢĢ": 1320,
      "ãĥĥãĤ¯ãĤ¹": 1321,
      "ãģ¦ãĤĤ": 1322,
      "æĲ": 1323,
      "ãģ¾ãĤĬ": 1324,
      "éĸĭåĤ¬": 1325,
      "åĥı": 1326,
      "çĦ¶": 1327,
      "æĬķ": 1328,
      "éĻį": 1329,
      "è¦ª": 1330,
      "è«ĸ": 1331,
      "ãģ®å¤§": 1332,
      "å¤ª": 1333,
      "ãģ®æĻĤ": 1334,
      "ç´°": 1335,
      "ä¹Ĺ": 1336,
      "çİĩ": 1337,
      "éĺ²": 1338,
      "éĿŀ": 1339,
      "å±ŀ": 1340,
      "æ°ı": 1341,
      "ãĥ¼ãĤ«": 1342,
      "ãģ®æĸ¹": 1343,
      "åºľ": 1344,
      "å®Į": 1345,
      "åĲĮãģĺ": 1346,
      "ãĤıãģĽ": 1347,
      "ãĥ¼ãĥ©": 1348,
      "èģŀ": 1349,
      "è¶³": 1350,
      "æİ¥": 1351,
      "ç±³": 1352,
      "éīĦ": 1353,
      "æľĪãģ«": 1354,
      "éľ": 1355,
      "éłŃ": 1356,
      "èĸ": 1357,
      "oo": 1358,
      "å¼µ": 1359,
      "ä¿®": 1360,
      "åĲ«": 1361,
      "ãĤĭãģ¨": 1362,
      "ãĥ¼ãģ®": 1363,
      "åľĴ": 1364,
      "ãĥ³ãĥĢ": 1365,
      "åĬ¹": 1366,
      "ãģ¡ãĤĥ": 1367,
      "é¦¬": 1368,
      "ãģ®åŃ": 1369,
      "æĸŃ": 1370,
      "ä¿Ĥ": 1371,
      "æıĲ": 1372,
      "åıį": 1373,
      "åıĤåĬł": 1374,
      "çłĶç©¶": 1375,
      "èģ·": 1376,
      "ãĤ¡": 1377,
      "000": 1378,
      "å¢Ĺ": 1379,
      "ãĥ¬ãĥĵ": 1380,
      "èĳī": 1381,
      "ãģ¥": 1382,
      "æ´»åĭķ": 1383,
      "èĢĥãģĪ": 1384,
      "ãĥªãĤ¹": 1385,
      "æŃ³": 1386,
      "èŃ·": 1387,
      "åŃĹ": 1388,
      "ãĤĮãģ¦": 1389,
      "ãĥ«ãĥĪ": 1390,
      "ãĥĭãĥ¥": 1391,
      "éĢŁ": 1392,
      "ãģįãģ¾ãģĻ": 1393,
      "æ¹": 1394,
      "ãĥ³ãĥĲ": 1395,
      "å¾Įãģ«": 1396,
      "ãĤĴãģĬ": 1397,
      "å°İ": 1398,
      "25": 1399,
      "éłĺ": 1400,
      "ion": 1401,
      "å±Ģ": 1402,
      "å®³": 1403,
      "ãģ«ãģĤãĤĭ": 1404,
      "ãģĹãģ¦ãģĬãĤĬ": 1405,
      "ãĥ¼ãĥª": 1406,
      "ãĥĥãĥģ": 1407,
      "éĽ¢": 1408,
      "èį": 1409,
      "æ¸Ī": 1410,
      "ł´": 1411,
      "çĲĥ": 1412,
      "ãĤµãĤ¤": 1413,
      "å®¤": 1414,
      "ãģ®äºº": 1415,
      "21": 1416,
      "è±¡": 1417,
      "ãģ§ãģĹãģŁ": 1418,
      "æŃ»": 1419,
      "æ¤ľ": 1420,
      "ãĥ¬ãĤ¹": 1421,
      "èĲ½": 1422,
      "å½±": 1423,
      "ãģĬãĤĪ": 1424,
      "äºĨ": 1425,
      "å®ĺ": 1426,
      "ãĥĸãĥŃ": 1427,
      "æĶ¾éĢģ": 1428,
      "å¹´ãģ®": 1429,
      "am": 1430,
      "ãģ§ãģ®": 1431,
      "ãģ¨è¨Ģ": 1432,
      "åŁİ": 1433,
      "ãĤĴæİ": 1434,
      "ãĤĨ": 1435,
      "é»": 1436,
      "ä¸İ": 1437,
      "åº§": 1438,
      "ãģ«åĩº": 1439,
      "ãĥĸãĥ«": 1440,
      "ç§°": 1441,
      "éĤ": 1442,
      "ĩãĤ£": 1443,
      "çĨ": 1444,
      "ãĥ¼ãĤĴ": 1445,
      "om": 1446,
      "å©": 1447,
      "ãĥ¼ãģ¯": 1448,
      "è¿½": 1449,
      "ãĥ¨": 1450,
      "ãĥ¼ãĥĬ": 1451,
      "å¦": 1452,
      "ĠB": 1453,
      "è¦ĸ": 1454,
      "å´": 1455,
      "197": 1456,
      "ãģĵãģ®å": 1457,
      "å°Ĥ": 1458,
      "éģ©": 1459,
      "è²·": 1460,
      "äºķ": 1461,
      "et": 1462,
      "âĹ": 1463,
      "ãĥ¼ãģĮ": 1464,
      "å¾ħ": 1465,
      "å¢ĥ": 1466,
      "ãĢįãĢĮ": 1467,
      "åĳ¨": 1468,
      "æ£": 1469,
      "çĻºè¡¨": 1470,
      "ãĥ¼ãĥĨ": 1471,
      "éģ¸æīĭ": 1472,
      "å¿µ": 1473,
      "æĺłçĶ»": 1474,
      "ãĤ¤ãĤ¹": 1475,
      "as": 1476,
      "ãĥ¼ãĥĦ": 1477,
      "ãĥĹãĥ©": 1478,
      "è¿Ķ": 1479,
      "ed": 1480,
      "ãĥķãĥĪ": 1481,
      "åįĶ": 1482,
      "ãģ®ãĤ¢": 1483,
      "å²¡": 1484,
      "çķ°": 1485,
      "ãĤ²ãĥ¼ãĥł": 1486,
      "ãģ®æĶ": 1487,
      "ç¨ĭ": 1488,
      "ãģ«ãģ¦": 1489,
      "ç´ļ": 1490,
      "ãģķãĤīãģ«": 1491,
      "50": 1492,
      "ä»£è¡¨": 1493,
      "ãģ¨ãģĵãĤį": 1494,
      "å¤ļãģĦ": 1495,
      "ãģķãĤĮãģ¦": 1496,
      "ãģ«ãģªãĤĬ": 1497,
      "éĻ¤": 1498,
      "æ¦Ĥ": 1499,
      "ä¼ģæ¥Ń": 1500,
      "ãĢĤãĢĮ": 1501,
      "ãĤįãģĨ": 1502,
      "åıĬ": 1503,
      "ãģĻãĤĭãģĵãģ¨ãģĮ": 1504,
      "åĨĻ": 1505,
      "çª": 1506,
      "æ®ĭ": 1507,
      "çĴ": 1508,
      "ãģĵãģ¨ãĤĤ": 1509,
      "ãĥĪãĥ©": 1510,
      "ing": 1511,
      "æŃĮ": 1512,
      "ãģĬãĤĪãģ³": 1513,
      "ãĥĭãĤ¢": 1514,
      "ãĥ³ãĥģ": 1515,
      "è¨¼": 1516,
      "ãģŀ": 1517,
      "ç¿Ĵ": 1518,
      "ãģ»ãģ©": 1519,
      "éĽ£": 1520,
      "æĺŃ": 1521,
      "éĸ¢ä¿Ĥ": 1522,
      "ãģĵãģ¨ãģ§": 1523,
      "ãģ¨ãģĹãģŁ": 1524,
      "è²©": 1525,
      "ãģ®åĨ": 1526,
      "ãĤ©": 1527,
      "çĽ£": 1528,
      "äºī": 1529,
      "ãģ¨ãģį": 1530,
      "çĭ¬": 1531,
      "ãģ®æŃ": 1532,
      "ãģ®ãģ¿": 1533,
      "åħļ": 1534,
      "ãĥ³ãģ¯": 1535,
      "el": 1536,
      "å®®": 1537,
      "åħµ": 1538,
      "ãĥ¼ãĤ°": 1539,
      "æľĽ": 1540,
      "ç¦ı": 1541,
      "è©ķ": 1542,
      "ãĥĩãĤ¶": 1543,
      "ãģ¨ãģªãĤĬ": 1544,
      "æľ«": 1545,
      "æĪ¸": 1546,
      "éŁ¿": 1547,
      "åİ»": 1548,
      "ãĥ³ãģ®": 1549,
      "ãĤĴä½¿": 1550,
      "ãģªãĤĵ": 1551,
      "æºĸ": 1552,
      "æłª": 1553,
      "çĻĤ": 1554,
      "ãģĵãģ¨ãģ¯": 1555,
      "æīĵ": 1556,
      "æ¯İ": 1557,
      "æĸ¹æ³ķ": 1558,
      "èĹ¤": 1559,
      "èħ": 1560,
      "ãĥ³ãĤ·": 1561,
      "ãĥ¼ãĥĸ": 1562,
      "æ¡Ī": 1563,
      "24": 1564,
      "èŃĺ": 1565,
      "åķĨåĵģ": 1566,
      "ç¶Ļ": 1567,
      "ãģ£ãģ¦ãģĦãģ¾ãģĻ": 1568,
      "æıĽ": 1569,
      "å¸°": 1570,
      "ãģ¨æĢĿãģĦãģ¾ãģĻ": 1571,
      "æ¿": 1572,
      "å¾©": 1573,
      "æı´": 1574,
      "åĮ»": 1575,
      "åĽ³": 1576,
      "ãģ¹ãģ¦": 1577,
      "é¡ĺ": 1578,
      "ç´Ģ": 1579,
      "ãģ¨ãģĻãĤĭ": 1580,
      "ãĥĨãĥ¬ãĥĵ": 1581,
      "äºĭæ¥Ń": 1582,
      "ãģ®æī": 1583,
      "ãĤĴæı": 1584,
      "ãĤ¢ãĥĥãĥĹ": 1585,
      "æĻĤãģ«": 1586,
      "ãĤ¼": 1587,
      "åĿ": 1588,
      "æ¯Ķ": 1589,
      "ãĥĩãĥ¼ãĤ¿": 1590,
      "ãĤĴãģĶ": 1591,
      "æĹ©": 1592,
      "ç¤¾ä¼ļ": 1593,
      "ãĤĦãģĻ": 1594,
      "ãģ®ãĤ³": 1595,
      "ãĢľ": 1596,
      "ãĤıãĤĬ": 1597,
      "ãĥģãĥ¼ãĥł": 1598,
      "éĢ±": 1599,
      "å½ĵæĻĤ": 1600,
      "åĲĪãĤıãģĽ": 1601,
      "çĴ°": 1602,
      "äººãģĮ": 1603,
      "ä»ĬåĽŀ": 1604,
      "ãģ¨åĳ¼": 1605,
      "æĺŃåĴĮ": 1606,
      "ãģ®æĪ": 1607,
      "ãĥģãĤ§": 1608,
      "æ®µ": 1609,
      "çµĲæŀľ": 1610,
      "ãĥ¡ãĥ³ãĥĪ": 1611,
      "ãģªãģĬ": 1612,
      "ãģ®å°": 1613,
      "196": 1614,
      "ãģ®å½": 1615,
      "åķıé¡Į": 1616,
      "èĪ¬": 1617,
      "ãģĵãģĨ": 1618,
      "çį": 1619,
      "éĸĭå§ĭ": 1620,
      "ãģ®æķ": 1621,
      "çŃĸ": 1622,
      "ãĥļãĥ¼ãĤ¸": 1623,
      "22": 1624,
      "âĢľ": 1625,
      "æĿ¡": 1626,
      "å¤±": 1627,
      "ä½İ": 1628,
      "å¼ķãģį": 1629,
      "ãģ§ãģ¯ãģªãģĦ": 1630,
      "ãģĮãģĤãĤĬ": 1631,
      "åĥį": 1632,
      "ãĤıãĤĮãĤĭ": 1633,
      "æ´¾": 1634,
      "ãĥĻãĥ«": 1635,
      "éĺª": 1636,
      "ãĥ¼ãĥģ": 1637,
      "éĥİ": 1638,
      "âĺ": 1639,
      "è¨ĺäºĭ": 1640,
      "åįģ": 1641,
      "ä»ķäºĭ": 1642,
      "ç¯ī": 1643,
      "ãģĮãģĤãĤĬãģ¾ãģĻ": 1644,
      "ãĤªãĥª": 1645,
      "ãĤ¹ãĥĨãĥł": 1646,
      "ãģĵãĤĮãģ¯": 1647,
      "ç¢ºèªį": 1648,
      "il": 1649,
      "ãģ¾ãĤĮ": 1650,
      "ãĤĤãģĹ": 1651,
      "æĢ¥": 1652,
      "æĿ¾": 1653,
      "°·": 1654,
      "ĠF": 1655,
      "çħ": 1656,
      "ãĤªãĥ³": 1657,
      "åĢ¤": 1658,
      "2018": 1659,
      "ãĥīãĥ©": 1660,
      "éŁ³æ¥½": 1661,
      "ãĥŁãĥ¥": 1662,
      "ãĥĬãĥ«": 1663,
      "ãĥªãĥ¼ãĤº": 1664,
      "çĿ£": 1665,
      "ãģľ": 1666,
      "ĠD": 1667,
      "ãĤıãĤĮãģŁ": 1668,
      "éłĤ": 1669,
      "åī²": 1670,
      "ãĤĴæĬ": 1671,
      "âĸ": 1672,
      "è²»": 1673,
      "ch": 1674,
      "ãĤ¹ãĤ¯": 1675,
      "ãĥ¼ãĥĲ": 1676,
      "èµ°": 1677,
      "ãģ®ãģŁãĤģ": 1678,
      "çĻ»éĮ²": 1679,
      "âĶ": 1680,
      "æŃ¦": 1681,
      "èī¦": 1682,
      "æķĹ": 1683,
      "ãĤ·ãĤ¹ãĥĨãĥł": 1684,
      "ĠL": 1685,
      "æ»": 1686,
      "ä¼ĳ": 1687,
      "ãģ®åł´": 1688,
      "éĻ¸": 1689,
      "ãģµ": 1690,
      "éłĥ": 1691,
      "çĻºå£²": 1692,
      "ãģ§ãģĹãĤĩãģĨ": 1693,
      "åľ°åŁŁ": 1694,
      "åĩºæĿ¥": 1695,
      "åŃĺåľ¨": 1696,
      "æ¶Ī": 1697,
      "å¹´ãģ«ãģ¯": 1698,
      "ãģ®åĽ": 1699,
      "ãģĿãģĵ": 1700,
      "ĠI": 1701,
      "ãĤīãĤĮãģ¦ãģĦãĤĭ": 1702,
      "ãģŁãģł": 1703,
      "æ¦Ĥè¦ģ": 1704,
      "ãģ®è©": 1705,
      "è°·": 1706,
      "ãĤ¹ãĥļ": 1707,
      "åĽ²": 1708,
      "ãģ«ãģĬãģĳãĤĭ": 1709,
      "ãĤ¹ãĥŀ": 1710,
      "ãģĶãģĸ": 1711,
      "æºĢ": 1712,
      "çĹħ": 1713,
      "ãĤ¦ãĤ£": 1714,
      "ãģĵãģĵ": 1715,
      "çĶŁæ´»": 1716,
      "ãĥ³ãĤµ": 1717,
      "ãģĪãģ°": 1718,
      "ãĤ¤ãĥ³ãĥ": 1719,
      "æ©ĭ": 1720,
      "è»½": 1721,
      "çĻ»åł´": 1722,
      "è¦§": 1723,
      "ãĤĴä½ľ": 1724,
      "23": 1725,
      "æĹħ": 1726,
      "ãĥ³ãĤº": 1727,
      "æľª": 1728,
      "ãģ®åľ": 1729,
      "è¿°": 1730,
      "èĪ¹": 1731,
      "100": 1732,
      "æĦŁãģĺ": 1733,
      "ãĤ°ãĥ«": 1734,
      "ä»¥ä¸ĭ": 1735,
      "çĮ": 1736,
      "é«ĺãģĦ": 1737,
      "ad": 1738,
      "å¾ĵ": 1739,
      "å®Ī": 1740,
      "çĸ": 1741,
      "æŃ©": 1742,
      "è«ĩ": 1743,
      "ãģ®åį": 1744,
      "å¤«": 1745,
      "èĬ±": 1746,
      "ãĤ¤ãĥ³ãĤ¿": 1747,
      "ĠR": 1748,
      "åĪĹ": 1749,
      "æĺŁ": 1750,
      "194": 1751,
      "ãĥĿãĥ¼ãĥĪ": 1752,
      "ãģ¼": 1753,
      "è¡Ľ": 1754,
      "ãĥ´ãĤ£": 1755,
      "çĦ¡æĸĻ": 1756,
      "ãĤ¯ãĥŃ": 1757,
      "ãĥŀãĤ¤": 1758,
      "ãģįãģ¾ãģĹãģŁ": 1759,
      "ãĤ¸ãĥ¥": 1760,
      "ãģ£ãģ¦ãĤĤ": 1761,
      "ãĤ¤ãĥĻ": 1762,
      "åĬ©": 1763,
      "è¨Ńå®ļ": 1764,
      "åħ·": 1765,
      "ãģªãĤĬ": 1766,
      "éº": 1767,
      "ãģĹãģ¾ãģĨ": 1768,
      "è¬Ľ": 1769,
      "ow": 1770,
      "ãĥĩãĥ«": 1771,
      "æ©Łèĥ½": 1772,
      "ol": 1773,
      "æ±Ĥ": 1774,
      "of": 1775,
      "å®¢æ§ĺ": 1776,
      "éĥ¡": 1777,
      "ãĤīãģĦ": 1778,
      "ãģŁãĤĬ": 1779,
      "é£Ľ": 1780,
      "æį": 1781,
      "æĮģãģ¡": 1782,
      "èĩªèº«": 1783,
      "è¡¨ç¤º": 1784,
      "ap": 1785,
      "èĮ": 1786,
      "ç®¡çĲĨ": 1787,
      "ãĤĴæĶ": 1788,
      "ç©į": 1789,
      "ãģ®åī": 1790,
      "è²ł": 1791,
      "å¾¡": 1792,
      "äººãģ®": 1793,
      "åĭ¢": 1794,
      "ãĤĴæī": 1795,
      "--": 1796,
      "å¥½ãģį": 1797,
      "ãĥ¼ãĥķ": 1798,
      "ãģªãģ©ãģ®": 1799,
      "éļİ": 1800,
      "çģ«": 1801,
      "å®ħ": 1802,
      "ãģªãģŁ": 1803,
      "è¢": 1804,
      "ãĤ·ãĤ¢": 1805,
      "ãģ®æĦ": 1806,
      "åīµ": 1807,
      "è²©å£²": 1808,
      "ãĤ¤ãĥĻãĥ³ãĥĪ": 1809,
      "å¸¯": 1810,
      "ä¸ĢèĪ¬": 1811,
      "ãģĦãģ¤": 1812,
      "ent": 1813,
      "ãģ£ãģ": 1814,
      "ãĥ´ãĤ¡": 1815,
      "ãĥ¼ãĥĨãĤ£": 1816,
      "ç±į": 1817,
      "2019": 1818,
      "å¥³æĢ§": 1819,
      "ãģĹãģŁãģĦ": 1820,
      "ãĥ³ãĥĶ": 1821,
      "ĠG": 1822,
      "æ¨Ļ": 1823,
      "ãģ§ãģ¯ãģªãģı": 1824,
      "äººæ°Ĺ": 1825,
      "ãĢģãĢİ": 1826,
      "Ġs": 1827,
      "ç¬ĳ": 1828,
      "å©ļ": 1829,
      "èĪĪ": 1830,
      "ãģ¡ãĤī": 1831,
      "ãĥĩãĤ¶ãĤ¤ãĥ³": 1832,
      "å°±": 1833,
      "ãģ®ãĤĪãģĨãģª": 1834,
      "ãĥ¼ãĤ¶": 1835,
      "è¤": 1836,
      "ãĥĵãĥ¥ãĥ¼": 1837,
      "åįĴ": 1838,
      "æĮĻ": 1839,
      "ãģ¨ãĤĤãģ«": 1840,
      "ãģ«å¯¾ãģĹãģ¦": 1841,
      "ä¾¿": 1842,
      "å¯º": 1843,
      "ãģ®åĩ": 1844,
      "çķªçµĦ": 1845,
      "åīįãģ«": 1846,
      "ãģ§ãģĻãģŃ": 1847,
      "âĻ": 1848,
      "è¨ĺéĮ²": 1849,
      "ãĤĪãģı": 1850,
      "æ´ĭ": 1851,
      "åħ¬éĸĭ": 1852,
      "ĠW": 1853,
      "ä»¥éĻį": 1854,
      "ãģ®å¯": 1855,
      "ãĤ·ãĥªãĥ¼ãĤº": 1856,
      "åı¸": 1857,
      "å¹´ãģĭãĤī": 1858,
      "ãģĤãĤĬãģ¾ãģĽãĤĵ": 1859,
      "2017": 1860,
      "ãģ«éĸ¢ãģĻãĤĭ": 1861,
      "ãģĤãģªãģŁ": 1862,
      "åĩ¦": 1863,
      "28": 1864,
      "ãĥ©ãĥ¼": 1865,
      "æĶ»": 1866,
      "ãģĨãģ¡": 1867,
      "æĤª": 1868,
      "ãĤ¹ãĥĿ": 1869,
      "ãģĹãģªãģĦ": 1870,
      "ãĤĴæĭ": 1871,
      "ãĢį(": 1872,
      "ãĤ¸ãĥ§": 1873,
      "åĨĻçľŁ": 1874,
      "ãģĭãģ«": 1875,
      "ãĥ³ãĤĴ": 1876,
      "æķ´": 1877,
      "ãĤĴåıĹãģĳ": 1878,
      "æ¥½ãģĹ": 1879,
      "id": 1880,
      "ãĤ¤ãĥĦ": 1881,
      "¼åħ¥": 1882,
      "26": 1883,
      "å´İ": 1884,
      "ãĤ¢ãĤ¯": 1885,
      "ãģ¸ãģ®": 1886,
      "ãĥīãĥ«": 1887,
      "ay": 1888,
      "è¶Ĭ": 1889,
      "çļĨ": 1890,
      "å¹´ä»£": 1891,
      "ç¨İ": 1892,
      "ãĥ¬ãĤ¤": 1893,
      "ä»ĺãģĳ": 1894,
      "é¦ĸ": 1895,
      "æ±Ł": 1896,
      "å°Ĩ": 1897,
      "çī¹ãģ«": 1898,
      "ãĤĴæ±": 1899,
      "æĬĢè¡ĵ": 1900,
      "çķ¥": 1901,
      "ãģĿãĤĵãģª": 1902,
      "ãĥįãĥĥãĥĪ": 1903,
      "éĥ¨åĪĨ": 1904,
      "éĬĢ": 1905,
      "±ãģĦ": 1906,
      "ãĤĴãĤĤ": 1907,
      "ä½Ĳ": 1908,
      "éĿĴ": 1909,
      "ot": 1910,
      "æ½": 1911,
      "å£°": 1912,
      "éł¼": 1913,
      "ãģ«ãģªãģ£ãģ¦": 1914,
      "æ¯į": 1915,
      "ä¸ŃåĽ½": 1916,
      "ãģ¾ãģŁãģ¯": 1917,
      "and": 1918,
      "ãĥĥãĤ·ãĥ¥": 1919,
      "27": 1920,
      "å§Ķ": 1921,
      "ä¸Ńå¿ĥ": 1922,
      "ãĥ¡ãĥ¼ãĥ«": 1923,
      "èī¯ãģĦ": 1924,
      "çĪ¶": 1925,
      "ãĤĤãģĤãĤĭ": 1926,
      "å¤īæĽ´": 1927,
      "æĹ¥ãģ®": 1928,
      "Ġm": 1929,
      "è¦ļ": 1930,
      "æ¸¯": 1931,
      "çĽ£çĿ£": 1932,
      "çµĦãģ¿": 1933,
      "å·®": 1934,
      "çł´": 1935,
      "åĶ": 1936,
      "èĪª": 1937,
      "ãģ«è¡Į": 1938,
      "ãģ®åĲį": 1939,
      "èĩªåĭķ": 1940,
      "ãģ¨ãģĭ": 1941,
      "ç®Ĺ": 1942,
      "çľģ": 1943,
      "ãĥ¼ãĥĭ": 1944,
      "ç«¶": 1945,
      "ãĤ¤ãĥ³ãĥĪ": 1946,
      "è£ľ": 1947,
      "è¶ħ": 1948,
      "æ¸¡": 1949,
      "å¤§ä¼ļ": 1950,
      "æľĢåĪĿ": 1951,
      "åįĥ": 1952,
      "é»Ĵ": 1953,
      "ãĥ¼ãĥŃ": 1954,
      "å¾´": 1955,
      "åĢĭäºº": 1956,
      "è¾¼ãģ¿": 1957,
      "åł´æīĢ": 1958,
      "ãĤ¢ãĥĹãĥª": 1959,
      "ħå½ĵ": 1960,
      "ãģĹãģŁãģĮ": 1961,
      "Ġf": 1962,
      "ĠĠĠĠĠĠĠĠ": 1963,
      "ãģķãĤĮãģ¦ãģĦãģŁ": 1964,
      "ãĥ¼ãģ«": 1965,
      "Ġc": 1966,
      "Ġb": 1967,
      "ãģªãģ®ãģ§": 1968,
      "ä¹ħ": 1969,
      "ãĥ¼ãĥĢ": 1970,
      "ãģ®ãģĤãĤĭ": 1971,
      "ãģ¾ãģł": 1972,
      "å¯Ħ": 1973,
      "èĸ¬": 1974,
      "eb": 1975,
      "ãĤ¦ãĤ¹": 1976,
      "ãĥĢãĤ¤": 1977,
      "ãģ¨ãģĨ": 1978,
      "é¡į": 1979,
      "40": 1980,
      "ãĤ·ãĥ¼ãĤº": 1981,
      "ãģĦãģ¾ãģĹãģŁ": 1982,
      "ãģķãģĽãĤĭ": 1983,
      "ãĥ©ãĥ³ãĥī": 1984,
      "å¾Įãģ®": 1985,
      "çĴ°å¢ĥ": 1986,
      "ĠH": 1987,
      "æłªå¼ı": 1988,
      "æ³ģ": 1989,
      "ãĥĲãĤ¤": 1990,
      "æĽľ": 1991,
      "æİĪ": 1992,
      "éĸĵãģ«": 1993,
      "ç¹Ķ": 1994,
      "ãĥ³ãĥĦ": 1995,
      "ãĢħãģª": 1996,
      "ç°": 1997,
      "ãĤīãģªãģĦ": 1998,
      "ãĤĴæĦ": 1999,
      "ãģ¾ãģ¾": 2000,
      "ĠE": 2001,
      "æ¸©": 2002,
      "ãģ¨åĳ¼ãģ°": 2003,
      "æĸĩåĮĸ": 2004,
      "æ¥µ": 2005,
      "éĹ": 2006,
      "ãģłãģĳãģ§": 2007,
      "å±Ĭ": 2008,
      "ãĥ³ãģĮ": 2009,
      "ãĤ«ãĥ«": 2010,
      "ä»¤": 2011,
      "ãģ®ãĤĪãģĨãģ«": 2012,
      "è©¦åĲĪ": 2013,
      "ãģłãģĮ": 2014,
      "ç·ĴçĶ³éĲĥç·ĴçĶ³éĲĥ": 2015,
      "29": 2016,
      "ãĤ¢ãĥ«ãĥĲ": 2017,
      "å¸¸ãģ«": 2018,
      "ãĥīãĤ¤ãĥĦ": 2019,
      "ãĥĸãĥŃãĤ°": 2020,
      "ter": 2021,
      "éļĽãģ«": 2022,
      "æ¸Ľ": 2023,
      "ãĤīãģļ": 2024,
      "èĢħãģĮ": 2025,
      "ãģ®å¥": 2026,
      "è³¼åħ¥": 2027,
      "ãĥªãĤ¹ãĥĪ": 2028,
      "èĬ¸": 2029,
      "ãĥĪãĥ¬": 2030,
      "è±Ĭ": 2031,
      "2016": 2032,
      "åĨħå®¹": 2033,
      "éĽĳ": 2034,
      "é¡ĺãģĦ": 2035,
      "å¹³æĪĲ": 2036,
      "äººãģ¯": 2037,
      "æĸ°ãģĹãģĦ": 2038,
      "ag": 2039,
      "ĠN": 2040,
      "ãĤ¢ãĥĭ": 2041,
      "ãģĭãģĳ": 2042,
      "è¡Ĺ": 2043,
      "æ¢": 2044,
      "Ġp": 2045,
      "ãģ®è²": 2046,
      "ãĥķãĥ©ãĥ³ãĤ¹": 2047,
      "ãĥ©ãĤ¯": 2048,
      "ãĤĴéĢļ": 2049,
      "ãĥ¼ãĤŃ": 2050,
      "ig": 2051,
      "ç´Ļ": 2052,
      "çµ¶": 2053,
      "åĽ½éļĽ": 2054,
      "å¤§éĺª": 2055,
      "åıĭ": 2056,
      "ãĥĪãĥª": 2057,
      "us": 2058,
      "ãĥ¼ãĥ«ãĥī": 2059,
      "æºĲ": 2060,
      "ãĥĢãĤ¦": 2061,
      "å¸Ŀ": 2062,
      "2020": 2063,
      "æ¨ª": 2064,
      "ãĥ»ãĥ»ãĥ»": 2065,
      "æĹ§": 2066,
      "ãģ«ãģ¨": 2067,
      "IN": 2068,
      "ãģ®åĭ": 2069,
      "´»": 2070,
      "ãģĳãĤĮãģ°": 2071,
      "åĬĩ": 2072,
      "ãģ²ãģ¨": 2073,
      "Ġthe": 2074,
      "ãģĮè¡Į": 2075,
      "åĽĽ": 2076,
      "åĽł": 2077,
      "ãĥªãĥ³ãĤ°": 2078,
      "ãģ¡ãĤĥãĤĵ": 2079,
      ")ãĢį": 2080,
      "æĨ": 2081,
      "è¤ĩ": 2082,
      "åĲĮå¹´": 2083,
      "å¯Į": 2084,
      "æ²¢": 2085,
      "ä¸ĬãģĮ": 2086,
      "èµ·ãģĵ": 2087,
      "æ³¢": 2088,
      "ãĥĽãĥ¼ãĥł": 2089,
      "çļĩ": 2090,
      "æķĻèĤ²": 2091,
      "em": 2092,
      "äºĪå®ļ": 2093,
      "è¨ĪçĶ»": 2094,
      "æĺ¥": 2095,
      "ãĢĤ(": 2096,
      "ãĤĵãģ©": 2097,
      "çµĮæ¸Ī": 2098,
      "ãģķãģ¾": 2099,
      "ãģĮåĩº": 2100,
      "æ¨¡": 2101,
      "æĻ¯": 2102,
      "å¤ľ": 2103,
      "çķĻ": 2104,
      "èµ¤": 2105,
      "æĴ®": 2106,
      "ãĤĴçĽ®": 2107,
      "ä»¥å¤ĸ": 2108,
      "....": 2109,
      "ãĥ³ãĥĳ": 2110,
      "ãģĻãģ¹ãģ¦": 2111,
      "ãĤ¨ãĥ«": 2112,
      "ãĥĲãĤ¹": 2113,
      "ãģıãĤĭ": 2114,
      "ãģĬå®¢æ§ĺ": 2115,
      "ãģ®æĮ": 2116,
      "åĲī": 2117,
      "é¦Ļ": 2118,
      "ãģĦãģŁãģł": 2119,
      "ãĥ¼ãĥĳ": 2120,
      "éĩįè¦ģ": 2121,
      "ãģ«ãģªãĤĬãģ¾ãģĻ": 2122,
      "è¨±": 2123,
      "ãģŀãĤĮ": 2124,
      "ãĥ¢ãĥĩãĥ«": 2125,
      "ç¯Ģ": 2126,
      "ãĤŃãĥ¥": 2127,
      "èª²": 2128,
      "ãģ§ãģįãģªãģĦ": 2129,
      "ãģ®åĩº": 2130,
      "åĬĽãĤĴ": 2131,
      "ãģĿãĤĮãģŀãĤĮ": 2132,
      "æł¹": 2133,
      "çªģ": 2134,
      "é³": 2135,
      "ãģĵãĤĮãĤī": 2136,
      "ãģ®ãģ§ãģĻ": 2137,
      "ãģ®åĬ": 2138,
      "ãģĹãģ¦ãĤĤ": 2139,
      "æĿ¿": 2140,
      "ãģ®åł´åĲĪ": 2141,
      "ãĥįãĤ¹": 2142,
      "ç«¯": 2143,
      "æ²³": 2144,
      "è¾º": 2145,
      "å¯Ł": 2146,
      "é¡Ķ": 2147,
      "å±ħ": 2148,
      "åħ±ãģ«": 2149,
      "195": 2150,
      "èªĮ": 2151,
      "å¤ı": 2152,
      "åį°": 2153,
      "ãĢı(": 2154,
      "çĹĩ": 2155,
      "ãĤ°ãĥ«ãĥ¼ãĥĹ": 2156,
      "èĭ¥": 2157,
      "ãĥĥãĤ«": 2158,
      "ãĤĴè¡ĮãģĨ": 2159,
      "ãĥ¯ãĥ¼ãĤ¯": 2160,
      "åĬŁ": 2161,
      "çį²": 2162,
      "é£Łãģ¹": 2163,
      "2015": 2164,
      "ãģĦãģŁãģĹãģ¾ãģĻ": 2165,
      "æĽ¿": 2166,
      "ãģ«ãģ¤ãģĦãģ¦ãģ¯": 2167,
      "ãģ®ãĤĤ": 2168,
      "çµĮé¨ĵ": 2169,
      "åı³": 2170,
      "ãģĭãģ¤": 2171,
      "éĢļãĤĬ": 2172,
      "ãģ¨ãģĹãģ¦ãģ¯": 2173,
      "æľĢå¤§": 2174,
      "ãģıãĤĬ": 2175,
      "ãģĳãģ©": 2176,
      "ä½įç½®": 2177,
      "åľ§": 2178,
      "AN": 2179,
      "ãģ®æ°": 2180,
      "ãĥ¼ãĤ¹ãĥĪ": 2181,
      "ä¸Ģæĸ¹": 2182,
      "ç°¡": 2183,
      "ãĤ¸ãĤª": 2184,
      "é¤Ĭ": 2185,
      "æĬľ": 2186,
      "èª¿æŁ»": 2187,
      "æĪ»": 2188,
      "ãģ¨ãģªãģ£ãģ¦ãģĦãĤĭ": 2189,
      "å¸ĥ": 2190,
      "å·¦": 2191,
      "ãĤĴå®Ł": 2192,
      "åĲĳãģĳ": 2193,
      "çĨ±": 2194,
      "æłªå¼ıä¼ļç¤¾": 2195,
      "ãĥĩãĤ£ãĤ¢": 2196,
      "ãĤ¥": 2197,
      "ãĤ«ãĥ¼ãĥī": 2198,
      "çĻºçĶŁ": 2199,
      "éĥ½å¸Ĥ": 2200,
      "²è¼ī": 2201,
      "æ®º": 2202,
      "ãģ®æĿ": 2203,
      "åģ¥": 2204,
      "æĻ®": 2205,
      "ĳç´Ħ": 2206,
      "éĿ©": 2207,
      "ãĤĤãģĨ": 2208,
      "ãģ®å¼": 2209,
      "åįļ": 2210,
      "ec": 2211,
      "æī¿": 2212,
      "ãģĮãģĤãģ£ãģŁ": 2213,
      "ãĥ³ãĤ¬": 2214,
      "åįĴæ¥Ń": 2215,
      "è¡Ĩ": 2216,
      "çĬ¶æħĭ": 2217,
      "ãģ¨ãģĦãģ£ãģŁ": 2218,
      "éīĦéģĵ": 2219,
      "åĪĿãĤģãģ¦": 2220,
      "ãģĭãĤīãģ¯": 2221,
      "è©³": 2222,
      "ãĤīãģĽ": 2223,
      "ãĤ½ãĥķãĥĪ": 2224,
      "ãĤ±ãĥĥãĥĪ": 2225,
      "æĹ¥ãģ¯": 2226,
      "Ĳä¾Ľ": 2227,
      "èºį": 2228,
      "ãĥªãĥ¼ãĤ¹": 2229,
      "éģº": 2230,
      "èĶ": 2231,
      "ãĥªãĥ¼ãĤ°": 2232,
      "ãĤ¤ãĥī": 2233,
      "ãĥĿãĤ¤ãĥ³ãĥĪ": 2234,
      "ãĤĴä½¿çĶ¨": 2235,
      "Ġw": 2236,
      "éģł": 2237,
      "ãģ¾ãģļ": 2238,
      "ãģ®ãĥ¡": 2239,
      "ç¿Į": 2240,
      "èĭ±èªŀ": 2241,
      "ãģĻãĤĭãģŁãĤģ": 2242,
      "ãģ»ãģĭ": 2243,
      "ãĤ¤ãĤ®": 2244,
      "Ġd": 2245,
      "éĹĺ": 2246,
      "ãģ£ãģ¦ãģĬãĤĬ": 2247,
      "ãĤıãĤĭ": 2248,
      "ãģ®åľ°": 2249,
      "çµ¦": 2250,
      "å¼¾": 2251,
      "ãĥĬãĥ¼": 2252,
      "å§Ķåĵ¡": 2253,
      "å¯¾å¿ľ": 2254,
      "æĲº": 2255,
      "ãĥ³ãĤ»": 2256,
      "è¨Ńç½®": 2257,
      "ãģ¹ãģį": 2258,
      "å°ĳãģĹ": 2259,
      "æľŁéĸĵ": 2260,
      "2014": 2261,
      "å¤§ãģįãģª": 2262,
      "åĬ´": 2263,
      "ãģĺãĤĥ": 2264,
      "ãģıãģª": 2265,
      "ãģ¾ãģ£ãģŁ": 2266,
      "è¨ª": 2267,
      "ç·´": 2268,
      "å¤®": 2269,
      "ãĤĴãģ¤": 2270,
      "ri": 2271,
      "æıĲä¾Ľ": 2272,
      "ãĤĴå¾Ĺ": 2273,
      "æľĢé«ĺ": 2274,
      "ãĤ¤ãĤ®ãĥªãĤ¹": 2275,
      "æĮ¯": 2276,
      "ä¼Ĭ": 2277,
      "ãĥĥãĤ°": 2278,
      "Ġof": 2279,
      "äºĶ": 2280,
      "ãĤ·ãĤ§": 2281,
      "å¹´éĸĵ": 2282,
      "éĢĶ": 2283,
      "¡çĶ¨": 2284,
      "çŁŃ": 2285,
      "un": 2286,
      "åº·": 2287,
      "æĺİæ²»": 2288,
      "ãģ®æĬ": 2289,
      "ãĥķãĥ¬": 2290,
      "åıĬãģ³": 2291,
      "èĪŀ": 2292,
      "çħ§": 2293,
      "èĻ": 2294,
      "ãģªãģ©ãĤĴ": 2295,
      "ĠO": 2296,
      "çĤº": 2297,
      "ä¸ĸç´Ģ": 2298,
      "æĸ½è¨Ń": 2299,
      "åħ¥ãĤĮ": 2300,
      "åħĲ": 2301,
      "ä¾¡æł¼": 2302,
      "éłĨ": 2303,
      "æŀļ": 2304,
      "éĻº": 2305,
      "éģĬ": 2306,
      "ãģ¤ãģ®": 2307,
      "æ´¥": 2308,
      "è¾²": 2309,
      "ãĤ¸ãĤ¢": 2310,
      "å¸Ń": 2311,
      "60": 2312,
      "ãģ®ãģ§ãģĻãģĮ": 2313,
      "ç·ĴçĶ³": 2314,
      "ãĤĭãģĵãģ¨ãģĮ": 2315,
      "ER": 2316,
      "ãģ®æµ": 2317,
      "ãĤ¢ãĥ«ãĥĲãĥł": 2318,
      "ãĤĴåĩº": 2319,
      "åħ¨åĽ½": 2320,
      "ãĥĨãĥ«": 2321,
      "ç²¾": 2322,
      "æĶ¿åºľ": 2323,
      "ãģ«ç§»": 2324,
      "æ¯Ľ": 2325,
      "ãģ¾ãģ¨": 2326,
      "èĢħãģ¯": 2327,
      "çĽĽ": 2328,
      "è¡Ģ": 2329,
      "âĸł": 2330,
      "ãĥĵãĤ¸": 2331,
      "ãĥ¼ãĥĩ": 2332,
      "ãĤ¹ãĤ³": 2333,
      "è¿İ": 2334,
      "ãĥ³ãĥŃ": 2335,
      "èĩªçĦ¶": 2336,
      "ãģ¾ãĤĭ": 2337,
      "ç¸¾": 2338,
      "æľį": 2339,
      "ãģ®è£": 2340,
      "æĳ": 2341,
      "æŃ´åı²": 2342,
      "ãĥ©ãĤ¤ãĥĸ": 2343,
      "å¹ħ": 2344,
      "ä¸Ńãģ«": 2345,
      "ãĥ©ãĤ¤ãĥ³": 2346,
      "ç§ĭ": 2347,
      "ãĤ¹ãĤŃ": 2348,
      "æµľ": 2349,
      "31": 2350,
      "é£²": 2351,
      "èĩ´": 2352,
      "ç«ĭãģ¡": 2353,
      "çµĤäºĨ": 2354,
      "ãģĹãģ¦ãģ¿": 2355,
      "çī¹å¾´": 2356,
      "ãģ®ãģ«": 2357,
      "ãĤĴæĮģãģ¤": 2358,
      "ä¸¦": 2359,
      "ç´¢": 2360,
      "ç´į": 2361,
      "æ§ĺãĢħãģª": 2362,
      "èĳĹ": 2363,
      "èŃ¦": 2364,
      "ãģ®ãģĶ": 2365,
      "ãĥ¶": 2366,
      "å·»": 2367,
      "ãĤ·ãĥ³ãĤ°": 2368,
      "ãĥ¦ãĥ¼ãĤ¶": 2369,
      "ãģĿãģ®ä»ĸ": 2370,
      "æĬŀ": 2371,
      "ĉĉ": 2372,
      "ãģ«å¯¾ãģĻãĤĭ": 2373,
      "ãģ®å¹": 2374,
      "ãĥĥãĤŃ": 2375,
      "ãģŁãģı": 2376,
      "ãģ¨ãģ¦ãĤĤ": 2377,
      "äºĭä»¶": 2378,
      "ãģĺãģ¦": 2379,
      "åħ¨ãģ¦": 2380,
      "2010": 2381,
      "ä½¿ãģĦ": 2382,
      "æĵ": 2383,
      "ãĥ³ãĤŃ": 2384,
      "ãĤĴåĲ«": 2385,
      "2012": 2386,
      "ãģĵãģ¨ãģ«": 2387,
      "åĪ¶ä½ľ": 2388,
      "æ¸ħ": 2389,
      "ãĥ¼ãĥĩãĤ£": 2390,
      "å°ĤéĸĢ": 2391,
      "ãģĶãģĸãģĦãģ¾ãģĻ": 2392,
      "æŁĵ": 2393,
      "ãģ®ä¸Ĭ": 2394,
      "2013": 2395,
      "åĬ¹æŀľ": 2396,
      "è¨³": 2397,
      "ãĤ¢ãĥĭãĥ¡": 2398,
      "çĽ¤": 2399,
      "çµµ": 2400,
      "Ġ1": 2401,
      "ãĤĮãģªãģĦ": 2402,
      "èĩªçĶ±": 2403,
      "ãĤĪãĤĬãĤĤ": 2404,
      "ãĤ»ãĥ³ãĤ¿": 2405,
      "éļľ": 2406,
      "æ¸¬": 2407,
      "å¯Ĩ": 2408,
      "ãģĦãģ¯": 2409,
      "Ġ3": 2410,
      "éĽ»è©±": 2411,
      "è¨Ģèĳī": 2412,
      "ãĥ¼ãĤµ": 2413,
      "ãģĻãģĲ": 2414,
      "åĸĦ": 2415,
      "åł´åĲĪãģ¯": 2416,
      "ç«ł": 2417,
      "ãĥıãĤ¤": 2418,
      "ç¨¿": 2419,
      "è²¡": 2420,
      "æľĢãĤĤ": 2421,
      "å¾Ĵ": 2422,
      "2011": 2423,
      "çį²å¾Ĺ": 2424,
      "ãĥķãĤ¡ãĤ¤ãĥ«": 2425,
      "ãĤ¨ãĥ³ãĤ¸": 2426,
      "ãĥ¼ãĥį": 2427,
      "æķħ": 2428,
      "ãģĭãĤĭ": 2429,
      "æ©Łéĸ¢": 2430,
      "è£½åĵģ": 2431,
      "èĢħãģ®": 2432,
      "æľĢæĸ°": 2433,
      "ãģĻãģĻ": 2434,
      "é«ĺæł¡": 2435,
      "ãĤĮãģ¦ãģĦãĤĭ": 2436,
      "AR": 2437,
      "ãģ«ãģĭ": 2438,
      "¥½": 2439,
      "ãģ¨ãģ¨ãĤĤãģ«": 2440,
      "ãģ¨åĲĮ": 2441,
      "ãģ®æīĭ": 2442,
      "åŃ¦çĶŁ": 2443,
      "ãģ®æĪ¦": 2444,
      "âĶģ": 2445,
      "ãĤĴåĭĻ": 2446,
      "æīķ": 2447,
      "åº«": 2448,
      "åĽ½åĨħ": 2449,
      "å¥ı": 2450,
      "å®¿": 2451,
      "ä¸¸": 2452,
      "ãĥģãĥ¥": 2453,
      "æľĢçµĤ": 2454,
      "ãģ«åĲĳ": 2455,
      "ãĤ¢ãĥī": 2456,
      "ut": 2457,
      "å¥ĳç´Ħ": 2458,
      "ç¥Ń": 2459,
      "§ĭ": 2460,
      "è§Ĵ": 2461,
      "ation": 2462,
      "ãĤ»ãĤ¹": 2463,
      "ãģ®åķ": 2464,
      "éģĭåĸ¶": 2465,
      "æ¿Ģ": 2466,
      "èª¬æĺİ": 2467,
      "ur": 2468,
      "im": 2469,
      "æŀĹ": 2470,
      "ãģ®åº": 2471,
      "ãģĦãģ§": 2472,
      "©Ł": 2473,
      "ãĤ¿ãĥ«": 2474,
      "å¨": 2475,
      "åħ«": 2476,
      "èģ´": 2477,
      "ãģĤãĤĬãģĮ": 2478,
      "ĠJ": 2479,
      "ãģ®å·": 2480,
      "è¨Ńç«ĭ": 2481,
      "å°Ħ": 2482,
      "ON": 2483,
      "ãģ¦ãģĦãģŁãģł": 2484,
      "ãĥŀãĥ«": 2485,
      "âĢĶ": 2486,
      "ãģ¯ãģĺ": 2487,
      "ãģ®å®Ł": 2488,
      "ãĥĹãĥŃãĤ°ãĥ©": 2489,
      "ãĤ¹ãĤ«": 2490,
      "æĪ¦äºī": 2491,
      "ãģ®è³": 2492,
      "ãģ»ãģ¨": 2493,
      "ãģ®ãĤĤãģ®": 2494,
      "æĸ°ãģŁ": 2495,
      "ãģ®æİ": 2496,
      "ãĥĹãĥ¬ãĤ¤": 2497,
      "ãĤ³ãĥ³": 2498,
      "ãĤ¾": 2499,
      "ãģ§ãģĤ": 2500,
      "ãģłãģ¨": 2501,
      "ãĤıãģĳ": 2502,
      "èĶµ": 2503,
      "ãĤĦãģĻãģĦ": 2504,
      "éĻ½": 2505,
      "éħįä¿¡": 2506,
      "ãģ®ãģŁãĤģãģ«": 2507,
      "è¨Ńè¨Ī": 2508,
      "ãģĹãģ¦ãģıãģłãģķãģĦ": 2509,
      "åĪĬ": 2510,
      "ãģĵãģ¨ãģĭãĤī": 2511,
      "å»ĥ": 2512,
      "80": 2513,
      "çµ¡": 2514,
      "ãĥĥãĥĳ": 2515,
      "ãģ®æĥ": 2516,
      "ve": 2517,
      "ãĤ»ãĥĥãĥĪ": 2518,
      "åłĤ": 2519,
      "æ·±": 2520,
      "ãģ®åĽ½": 2521,
      "åĦªåĭĿ": 2522,
      "åĸ¶æ¥Ń": 2523,
      "ãģ«ãģĤ": 2524,
      "æľ¬å½ĵ": 2525,
      "âĢķ": 2526,
      "åĪĩãĤĬ": 2527,
      "çĶŁçĶ£": 2528,
      "èĤī": 2529,
      "ãģ®æĺ": 2530,
      "æķµ": 2531,
      "ãģ¦ãģĦãģªãģĦ": 2532,
      "ãĥĥãĤ»": 2533,
      "çµĲå©ļ": 2534,
      "IC": 2535,
      "å¾Įãģ¯": 2536,
      "ãģĻãģĻãĤģ": 2537,
      "ãģĹãģŁãĤĬ": 2538,
      "æ¤į": 2539,
      "ãģ»ãģ¨ãĤĵãģ©": 2540,
      "çĦ¼": 2541,
      "ãģĦãģ¦ãģĦãĤĭ": 2542,
      "æİ¨": 2543,
      "éģ¸æĬŀ": 2544,
      "ãģ®å¯¾": 2545,
      "äººçī©": 2546,
      "ãģĦãĤį": 2547,
      "å¹¸": 2548,
      "é®": 2549,
      "ãģĮå¿ħè¦ģ": 2550,
      "ãĤ¹ãĤ¿ãĥ¼": 2551,
      "åľ°æĸ¹": 2552,
      "2009": 2553,
      "ãģĵãģ¡ãĤī": 2554,
      "å¹ķ": 2555,
      "éħ¸": 2556,
      "éħĴ": 2557,
      "åĭķçĶ»": 2558,
      "å®Ĺ": 2559,
      "çĽ¸è«ĩ": 2560,
      "ãģłãĤįãģĨ": 2561,
      "èĪĹ": 2562,
      "å¿Ĺ": 2563,
      "ãĥ¡ãĥ¼ãĤ¸": 2564,
      "çµĮåĸ¶": 2565,
      "æĸĩåŃĹ": 2566,
      "ãģªãģĳãĤĮãģ°": 2567,
      "ãĤĤãģ®ãģ®": 2568,
      "ä¼´": 2569,
      "ãĥ¼ãĤ¿ãĥ¼": 2570,
      "ãģĦãģ«": 2571,
      "è©ķä¾¡": 2572,
      "ãģĹãĤĪãģĨ": 2573,
      "ãģ®å±": 2574,
      "2008": 2575,
      "ãĥªãĥĨãĤ£": 2576,
      "ãĤ·ãĥ¼ãĤºãĥ³": 2577,
      "ãĤĪãģŃ": 2578,
      "ÃĹ": 2579,
      "ãĥªãĥªãĥ¼ãĤ¹": 2580,
      "ãģ®ç¬": 2581,
      "Ġ/": 2582,
      "ãģ®æĽ": 2583,
      "ãģ¡ãĤĩ": 2584,
      "âĻª": 2585,
      "ãģĭãĤīãģ®": 2586,
      "193": 2587,
      "ãģĹãģ¦ãģĬãĤĬãģ¾ãģĻ": 2588,
      "ç¾¤": 2589,
      "ä¸»ç¾©": 2590,
      "ãģĦãģı": 2591,
      "ãĥ¼ãĥ¬": 2592,
      "Ġin": 2593,
      "ç°¡åįĺ": 2594,
      "æĪĳ": 2595,
      "çŃĶ": 2596,
      "çµĦç¹Ķ": 2597,
      "æĸĻçĲĨ": 2598,
      "ãĤĴæķ": 2599,
      "éĻĲå®ļ": 2600,
      "ãģĦãģĨ": 2601,
      "ãĤĬãģ®": 2602,
      "ãĥĲãĥ¼": 2603,
      "éİ": 2604,
      "ãĤ¦ãĤ©": 2605,
      "ãĤĵãģ§ãģĻ": 2606,
      "èĦ±": 2607,
      "ä¸Ńå¤®": 2608,
      "ãģ®ä¸Ńãģ§": 2609,
      "æİ²è¼ī": 2610,
      "æķ£": 2611,
      "åħ¸": 2612,
      "è«ĭ": 2613,
      "è£ģ": 2614,
      "ãĥįãĥ«": 2615,
      "ãģ®ãĤ«": 2616,
      "ãĥķãĥ«": 2617,
      "ir": 2618,
      "one": 2619,
      "éĢļå¸¸": 2620,
      "çī¹åĪ¥": 2621,
      "IT": 2622,
      "2007": 2623,
      "ç·¨éĽĨ": 2624,
      "åĩºèº«": 2625,
      "äº¡": 2626,
      "ä¹±": 2627,
      "éģĭåĭķ": 2628,
      "éłħ": 2629,
      "äººéĸĵ": 2630,
      "å°¾": 2631,
      "èĨ": 2632,
      "ä½ĵé¨ĵ": 2633,
      "ãĤ¯ãĥ¬": 2634,
      "ãĤ³ãĥ¼ãĥī": 2635,
      "ab": 2636,
      "åıĹãģĳ": 2637,
      "æ°¸": 2638,
      "äºĭåĭĻ": 2639,
      "ãģ¾ãĤĮãģŁ": 2640,
      "ç·ł": 2641,
      "ãĤ³ãĥŃ": 2642,
      "æĬĹ": 2643,
      "âĶģâĶģ": 2644,
      "æİĽ": 2645,
      "èģĸ": 2646,
      "å½¼å¥³": 2647,
      "å¹´ãģ¯": 2648,
      "ãģ®åĮ": 2649,
      "ãĤ¸ãĤ§ãĤ¯ãĥĪ": 2650,
      "ä¸ĭãģķãģĦ": 2651,
      "çĽ®çļĦ": 2652,
      "ãģ¤ãģĭ": 2653,
      "éĸ¢éĢ£": 2654,
      "è¢«": 2655,
      "ub": 2656,
      "ãģ®ãĥĳ": 2657,
      "éŁĵ": 2658,
      "æ±ºå®ļ": 2659,
      "ãģ¾ãģĹãĤĩãģĨ": 2660,
      "åĢĴ": 2661,
      "ãĤµãĤ¤ãĤº": 2662,
      "å®ĩ": 2663,
      "ãģ®æĦı": 2664,
      "æ£®": 2665,
      "ä¼ļèŃ°": 2666,
      "ãģ®åŃĲ": 2667,
      "è·¡": 2668,
      "ãģĹãģ¾ãģ£ãģŁ": 2669,
      "å¸Į": 2670,
      "çĶ»åĥı": 2671,
      "éģ¸æĮĻ": 2672,
      "ãĤĴåıĸãĤĬ": 2673,
      "ãĥ³ãĥŃãĥ¼ãĥī": 2674,
      "ind": 2675,
      "ãģłãģĭãĤī": 2676,
      "ãĤĴãģĻãĤĭ": 2677,
      "km": 2678,
      "ãģ¨åħ±ãģ«": 2679,
      "ãĥ¼ãĤ±": 2680,
      "åĭŁ": 2681,
      "çģ½": 2682,
      "um": 2683,
      "éģķãģĦ": 2684,
      "ãĤīãģĹãģĦ": 2685,
      "å£Ĭ": 2686,
      "ãģķãĤĮãģ¦ãģĦãģ¾ãģĻ": 2687,
      "åħ¥ãĤĬ": 2688,
      "è¨ĺå¿µ": 2689,
      "å²¸": 2690,
      "ãĥĪãĥ«": 2691,
      "ãĤ¹ãĥĶ": 2692,
      "éª": 2693,
      "åŁºæľ¬": 2694,
      "ãģ®ç§": 2695,
      "èª°": 2696,
      "ä½ľæ¥Ń": 2697,
      "ST": 2698,
      "å±¤": 2699,
      "ãĤĴåıĸ": 2700,
      "ãģ®åīį": 2701,
      "åĢĻ": 2702,
      "èı¯": 2703,
      "ãģĤãĤĬãģĮãģ¨ãģĨ": 2704,
      "ãĥķãĥŃ": 2705,
      "ãģķãĤĮãģ¾ãģĻ": 2706,
      "æĭł": 2707,
      "çĬ¶æ³ģ": 2708,
      "æĺĩ": 2709,
      "æµ·å¤ĸ": 2710,
      "ãĤµãĥĿãĥ¼ãĥĪ": 2711,
      "ãģªãģ©ãģĮ": 2712,
      "ãģ®å¿": 2713,
      "ãģ§è¡Į": 2714,
      "th": 2715,
      "!ãĢį": 2716,
      "ver": 2717,
      "ãĥĢãĤ¦ãĥ³ãĥŃãĥ¼ãĥī": 2718,
      "è¼¸": 2719,
      "ãĥĸãĥ¬": 2720,
      "ä¼ģçĶ»": 2721,
      "ä¼¼": 2722,
      "æĴ®å½±": 2723,
      "ãĤĤãģ¡": 2724,
      "Ġ2": 2725,
      "ãĤĪãģĨãģ«ãģªãģ£ãģŁ": 2726,
      "ç§ģãģ¯": 2727,
      "ãģ®åĨħ": 2728,
      "ãĥĭãĥ¥ãĥ¼": 2729,
      "è¨İ": 2730,
      "ãĥĲãĥ«": 2731,
      "lo": 2732,
      "è«¸": 2733,
      "ãĤĴä¸Ńå¿ĥ": 2734,
      "æıı": 2735,
      "ãģĮãģªãģĦ": 2736,
      "ä¸Ģéĥ¨": 2737,
      "ãĤ¹ãĤ¿ãĥĥ": 2738,
      "ãĥĩãĥĵãĥ¥ãĥ¼": 2739,
      "ãĥĭãĥ¼": 2740,
      "ãĥĵãĥ«": 2741,
      "å¤§ãģįãģı": 2742,
      "ãĥ¬ãĤ¯": 2743,
      "å½ĵåĪĿ": 2744,
      "ãĥ³ãģ«": 2745,
      "çİī": 2746,
      "çĽ¸æīĭ": 2747,
      "çĶ³ãģĹ": 2748,
      "ãģĽãĤĭ": 2749,
      "ãĤªãĥ¼ãĥĹ": 2750,
      "ãģĭãĤĤãģĹ": 2751,
      "è²¨": 2752,
      "ĠV": 2753,
      "é®®": 2754,
      "SS": 2755,
      "ãĥĵãĤ¸ãĥįãĤ¹": 2756,
      "å¥Ī": 2757,
      "ç¨ĭåº¦": 2758,
      "ç«ĭãģ¦": 2759,
      "âĺĨ": 2760,
      "ãģ¨åĳ¼ãģ°ãĤĮãĤĭ": 2761,
      "ãĥ¬ãĥĥ": 2762,
      "ãĥĸãĥª": 2763,
      "å¾³": 2764,
      "çĩ": 2765,
      "ä»ĺãģį": 2766,
      "ãĤĴçĻº": 2767,
      "åĩºæ¼Ķ": 2768,
      "ðŁ": 2769,
      "å½±éŁ¿": 2770,
      "ãĥĮ": 2771,
      "ãģ«ãģ¨ãģ£ãģ¦": 2772,
      "ä»²": 2773,
      "ãģ®æ©Ł": 2774,
      "ä¸Ģç·Ĵ": 2775,
      "åħ¨ä½ĵ": 2776,
      "ãģ®åŁ": 2777,
      "ãģ®ç¬¬": 2778,
      "ãĥ©ãĤ¹": 2779,
      "èĩ³": 2780,
      "æķĻæİĪ": 2781,
      "å»¶": 2782,
      "èĥĮ": 2783,
      "ä¼ļåĵ¡": 2784,
      "ãģ®åĳ": 2785,
      "ãģ«ãģªãģ£ãģ¦ãģĦãĤĭ": 2786,
      "ä¸ģ": 2787,
      "AT": 2788,
      "å±ķéĸĭ": 2789,
      "åŃ¦éĥ¨": 2790,
      "ãĥ³ãĥĩ": 2791,
      "ãĥīãĥ©ãĥŀ": 2792,
      "åĭ¤": 2793,
      "ç§Ģ": 2794,
      "åı¯èĥ½æĢ§": 2795,
      "èĭ¦": 2796,
      "2006": 2797,
      "ãģ¨èĢĥãģĪ": 2798,
      "ä¿ĿèŃ·": 2799,
      "ess": 2800,
      "ãĤĴçµĮ": 2801,
      "åĽº": 2802,
      "ãģıãĤĮãĤĭ": 2803,
      "å¹´åº¦": 2804,
      "ãĤ¯ãĥ©ãĥĸ": 2805,
      "ä¾Ŀ": 2806,
      "ãĤ¹ãĤ¿ãĥĥãĥķ": 2807,
      "ãģŁãģłãģĹ": 2808,
      "çĶŁãģį": 2809,
      "å¯¾è±¡": 2810,
      "ãģĿãĤĮãģ¯": 2811,
      "è¼ĥ": 2812,
      "ãĥ«ãĤ¹": 2813,
      "æ³ī": 2814,
      "ãĥĨãĤ£ãĥ³ãĤ°": 2815,
      "è³Ģ": 2816,
      "ãĤĴä¸İ": 2817,
      "äºĪç´Ħ": 2818,
      "ãģĮè¦ĭ": 2819,
      "ak": 2820,
      "ãģĬé¡ĺãģĦ": 2821,
      "éĿŀå¸¸ãģ«": 2822,
      "éª¨": 2823,
      "æ¹¾": 2824,
      "ãĤıãĤĮãģ¦ãģĦãĤĭ": 2825,
      "åįł": 2826,
      "åĤ·": 2827,
      "ŀľ": 2828,
      "åĿĤ": 2829,
      "ãģ®å¾Į": 2830,
      "ãģŁãĤī": 2831,
      "å²©": 2832,
      "**": 2833,
      "op": 2834,
      "ãģ©ãĤĤ": 2835,
      "çĶ²": 2836,
      "Ġãģ¯": 2837,
      "éĢ£çµ¡": 2838,
      "ãĤ¹ãĤ¿ãĤ¤ãĥ«": 2839,
      "âĺħ": 2840,
      "ãĤ¢ãĤ¦": 2841,
      "è¡¨çı¾": 2842,
      "è¿½åĬł": 2843,
      "å®¶æĹı": 2844,
      "ãĤīãģĭ": 2845,
      "ãĥĨãĥ¼ãĥŀ": 2846,
      "ãĤ«ãĤ¦": 2847,
      "ãĤĴæŃ": 2848,
      "ãģ£ãģĭãĤĬ": 2849,
      "ç£": 2850,
      "ãĥ³ãĥķ": 2851,
      "æ´»èºį": 2852,
      "ãĥ¼ãĤ«ãĥ¼": 2853,
      "ä»ĬåĽŀãģ¯": 2854,
      "ä½Ļ": 2855,
      "ãĤĴæĽ": 2856,
      "ãĤĬãģ«": 2857,
      "å¸Ĥåł´": 2858,
      "ãģ¨åĲĮãģĺ": 2859,
      "åħ¬å¼ı": 2860,
      "ãĤ¹ãĥĿãĥ¼ãĥĦ": 2861,
      "nd": 2862,
      "ãĥĸãĥ©ãĥ³ãĥī": 2863,
      "éĢĨ": 2864,
      "ãģ¿ãģŁãģĦ": 2865,
      "ãģ®å¸": 2866,
      "äº¬éĥ½": 2867,
      "æĸ¹ãģĮ": 2868,
      "ãĥ³ãĥĲãĥ¼": 2869,
      "æľĢè¿ĳ": 2870,
      "ä¹Ŀ": 2871,
      "Ġ4": 2872,
      "èĮ¶": 2873,
      "å»ºè¨Ń": 2874,
      "ãģ¸ãģ¨": 2875,
      "åĩºãģĹ": 2876,
      "ãĥĲãĥ©": 2877,
      "çĲĨçĶ±": 2878,
      "ç¦ģ": 2879,
      "è¦ıæ¨¡": 2880,
      "ãģ®æĥħ": 2881,
      "ç¶ļãģį": 2882,
      "ãĤįãĤĵ": 2883,
      "ãģĻãģİ": 2884,
      "ãĥĭãĥ¥ãĥ¼ãĤ¹": 2885,
      "ãģĦãģŁãģłãģĳ": 2886,
      "2000": 2887,
      "èį·": 2888,
      "ãģ«ãģĹãģ¦": 2889,
      "æīĢå±ŀ": 2890,
      "ãģ®èī": 2891,
      "åĨħãģ«": 2892,
      "ãģ®æĢ": 2893,
      "çĽŁ": 2894,
      "å®Įåħ¨": 2895,
      "ãģ®å£": 2896,
      "90": 2897,
      "ãĤĴåĪ©çĶ¨": 2898,
      "ãĤ¹ãĥĳ": 2899,
      "æĦıåĳ³": 2900,
      "ãĤīãĤĮãģ¦": 2901,
      "æĺĵ": 2902,
      "ãĤ¤ãĤ¿": 2903,
      "å°±ä»»": 2904,
      "çĽĬ": 2905,
      "ãĤıãģļ": 2906,
      "ãĤ¹ãĤ¿ãĥ¼ãĥĪ": 2907,
      "åģľ": 2908,
      "ãĤıãģ£ãģŁ": 2909,
      "åĢī": 2910,
      "ä½µ": 2911,
      "ãģ¾ãĤĮãĤĭ": 2912,
      "ãĥĥãĥĦ": 2913,
      "ä»®": 2914,
      "åīĩ": 2915,
      "å½¼ãĤī": 2916,
      "æĸ¹ãģ¯": 2917,
      "ãĥĥãĤ·ãĥ§ãĥ³": 2918,
      "ãĤ¤ãĥ¡ãĥ¼ãĤ¸": 2919,
      "é§Ĩ": 2920,
      "ãĥĻãĥ¼ãĤ¹": 2921,
      "çŃĨ": 2922,
      "éŃħ": 2923,
      "åŃĲä¾Ľ": 2924,
      "çł²": 2925,
      "ãĥĩãĥ¥": 2926,
      "éŃĶ": 2927,
      "ãĥ³ãĥĨãĤ£": 2928,
      "ãģįãģŁãģĦ": 2929,
      "æŀĲ": 2930,
      "od": 2931,
      "æĭħå½ĵ": 2932,
      "ãĤĦãģ£ãģ¦": 2933,
      "ãģĻãĤĮãģ°": 2934,
      "ãĤ«ãĥ©": 2935,
      "åĦĦ": 2936,
      "æĭ¡": 2937,
      "è¸": 2938,
      "æĪĲåĬŁ": 2939,
      "Ġãģ®": 2940,
      "ãģ«ãģĹãģŁ": 2941,
      "æı®": 2942,
      "è§¦": 2943,
      "è¨º": 2944,
      "ãĤĤãģ¡ãĤįãĤĵ": 2945,
      "æĽ´æĸ°": 2946,
      "âĢĭ": 2947,
      "é½": 2948,
      "ãĥ¬ãĥ³ãĤ¸": 2949,
      "çļĦãģ«ãģ¯": 2950,
      "ãģŁãĤĭ": 2951,
      "ãĥ©ãĥ³": 2952,
      "åºŃ": 2953,
      "æģ¯": 2954,
      "ãĤ¿ãĤ¤ãĥĹ": 2955,
      "ãģªãģĹ": 2956,
      "500": 2957,
      "å½¼ãģ¯": 2958,
      "ãģ¨ãģĹ": 2959,
      "èĩ£": 2960,
      "ãĤĴçĶ¨": 2961,
      "ãģ®ä¸»": 2962,
      "ãģıãĤīãģĦ": 2963,
      "ä¸Ńãģ§": 2964,
      "ãģ®çŁ": 2965,
      "çĶ·æĢ§": 2966,
      "ãĤĴæıĲä¾Ľ": 2967,
      "ä¸ĩåĨĨ": 2968,
      "è¼ª": 2969,
      "ĠãĢĮ": 2970,
      "ãĥ³ãĤ³": 2971,
      "ŀį": 2972,
      "ãĤĴæ±º": 2973,
      "ãģ¨æĢĿãģĨ": 2974,
      "cm": 2975,
      "ãģ£ãģŁãĤĬ": 2976,
      "ãģĻãĤĭãģĵãģ¨ãģ§": 2977,
      "ãĥķãĥª": 2978,
      "âĹı": 2979,
      "ãĥ¦ãĥĭ": 2980,
      "åĥķ": 2981,
      "70": 2982,
      "ãĥŀãĥ³": 2983,
      "ãģ«åĬł": 2984,
      "æĮĩå®ļ": 2985,
      "æ±ł": 2986,
      "å¾ĭ": 2987,
      "èĢģ": 2988,
      "éĽĦ": 2989,
      "ãĤ³ãĥ³ãĥĨ": 2990,
      "å§¿": 2991,
      "ãģ®å¤ļ": 2992,
      "ãģ¿ãģ«": 2993,
      "åįĶä¼ļ": 2994,
      "éŃļ": 2995,
      "ä¸Ĭãģ§": 2996,
      "ãĥ³ãĤ«": 2997,
      "ãĥ³ãĥĩãĤ£": 2998,
      "ãĤĴæŀľ": 2999,
      "ãģĹãģ°": 3000,
      "ãģŁãģıãģķãĤĵ": 3001,
      "éĿĻ": 3002,
      "çĶŁãģ¾ãĤĮ": 3003,
      "çĮ®": 3004,
      "ãĢĤãĢĤ": 3005,
      "iP": 3006,
      "ãĥĽãĥĨãĥ«": 3007,
      "æĹ¢": 3008,
      "åĩºåł´": 3009,
      "ãĥ´ãĤ§": 3010,
      "ãĤ¦ãĤ§ãĤ¢": 3011,
      "ãĤ¯ãĥ«": 3012,
      "ãģĹãĤĥ": 3013,
      "ãĤĦãĤĬ": 3014,
      "åĨ·": 3015,
      "ãģ¾ãģ§ãģ®": 3016,
      "Ġand": 3017,
      "ãĤĴæŀľãģŁ": 3018,
      "ãģķãĤĮãģ¦ãģĬãĤĬ": 3019,
      "ãģ®å¾": 3020,
      "ãģ®æ´»": 3021,
      "ãĤ¿ãĤ¤ãĥĪ": 3022,
      "èĪªç©º": 3023,
      "ul": 3024,
      "ãģĤãģ¾ãĤĬ": 3025,
      "æĹ¥ãģĭãĤī": 3026,
      "ãĥŃãĤ°": 3027,
      "ãĥ¡ãĥ©": 3028,
      "ç¬¬ä¸Ģ": 3029,
      "ãģ®åĢ": 3030,
      "è²´": 3031,
      "oc": 3032,
      "çĻ¾": 3033,
      "ãĤĮãģ¾ãģĽãĤĵ": 3034,
      "æĸ°èģŀ": 3035,
      "æĶ¯æı´": 3036,
      "ãģ®åİ": 3037,
      "ãĤĵãģ§ãģĦãĤĭ": 3038,
      "å¼ģ": 3039,
      "ãĥĲãĥ³ãĥī": 3040,
      "ãģ®ãĤ¨": 3041,
      "ãĥ³ãĥĸ": 3042,
      "é³¥": 3043,
      "OS": 3044,
      "ãĥªãĥ³ãĤ¯": 3045,
      "ãģ®æ¨": 3046,
      "ãģľãģ²": 3047,
      "éĽ¨": 3048,
      "ãģĵãĤĵãģª": 3049,
      "å°İåħ¥": 3050,
      "ãģ®æĥħåł±": 3051,
      "ãģ§ãģĹãĤĩãģĨãģĭ": 3052,
      "ä»¥åīį": 3053,
      "éĸī": 3054,
      "os": 3055,
      "ãģ«åıĤåĬł": 3056,
      "ãĥ¡ãĥĩãĤ£ãĤ¢": 3057,
      "ãĤĴæĮĩ": 3058,
      "ĠU": 3059,
      "ãģ®ãĤª": 3060,
      "éĩĮ": 3061,
      "åŃ£": 3062,
      "OR": 3063,
      "ãĥĲãĥĥãĤ¯": 3064,
      "Ńè¼ī": 3065,
      "ãĤĴåıĹãģĳãģŁ": 3066,
      "ãĥ¯ãĤ¤": 3067,
      "ãģ®å¤ī": 3068,
      "ãģķãģĽãģ¦ãģĦãģŁãģł": 3069,
      "ãģĺãģŁ": 3070,
      "ãģ®çł": 3071,
      "èĹ©": 3072,
      "ãģ®ãĥŀ": 3073,
      "æİ¢": 3074,
      "ãĤĴå§ĭ": 3075,
      "å¼Ł": 3076,
      "ãģ§ãģĬ": 3077,
      "å®Ŀ": 3078,
      "å±Ĭãģĳ": 3079,
      "ook": 3080,
      "éĢĥ": 3081,
      "ãģ¡ãĤĩãģ£ãģ¨": 3082,
      "ãģĹãģªãģĮãĤī": 3083,
      "ãĥģãĤ§ãĥĥãĤ¯": 3084,
      "ãģ¯ãģĺãĤģ": 3085,
      "é«ĺçŃī": 3086,
      "äººãģ«": 3087,
      "ãĥ©ãĤ¤ãĥĪ": 3088,
      "2005": 3089,
      "èªŃãģ¿": 3090,
      "ãģ®æ³": 3091,
      "æ§ĭéĢł": 3092,
      "ãģ®ãģĵãģ¨": 3093,
      "åıİéĮ²": 3094,
      "ãģĮå¤ļãģĦ": 3095,
      "ãĤĨãĤĭ": 3096,
      "ä½ľãĤĬ": 3097,
      "æĿ±äº¬éĥ½": 3098,
      "ãĤ¤ãĥ³ãĥī": 3099,
      "ç§ģãģŁãģ¡": 3100,
      "ãģ®ãĥ¬": 3101,
      "å¥³åŃĲ": 3102,
      "è¡Įåĭķ": 3103,
      "å®£": 3104,
      "ãģªãģ©ãģ§": 3105,
      "åľ°åĮº": 3106,
      "ãĥķãĤ©ãĥ¼ãĥł": 3107,
      "ãĤ»ãĥ³ãĤ¿ãĥ¼": 3108,
      "ww": 3109,
      "av": 3110,
      "ãĥĪãĥĥãĥĹ": 3111,
      "ãĥĪãĥŃ": 3112,
      "æ²ĸ": 3113,
      "çļ®": 3114,
      "ãĤ¹ãĥĨãĤ£": 3115,
      "ãĤĴæĶ¯": 3116,
      "è©ŀ": 3117,
      "ãĥŃãĤ·ãĤ¢": 3118,
      "ãĥĹãĥŃãĤ¸ãĤ§ãĤ¯ãĥĪ": 3119,
      "ãĤĴçĽ®æĮĩ": 3120,
      "ãĥ³ãĥĵ": 3121,
      "çĹĽ": 3122,
      "æłĦ": 3123,
      "ĠK": 3124,
      "ãģķãģĽãģ¦": 3125,
      "å§Ķåĵ¡ä¼ļ": 3126,
      "ç¶ļãģĳ": 3127,
      "éģİåİ»": 3128,
      "æ¥ŃåĭĻ": 3129,
      "é½¢": 3130,
      "æ¬²": 3131,
      "å¯¾çŃĸ": 3132,
      "ãģĺãĤĭ": 3133,
      "èĤĮ": 3134,
      "Ġto": 3135,
      "çĽ®ãģ®": 3136,
      "å¤ļæķ°": 3137,
      "ãĥ¼ãĤ¬": 3138,
      "éĢļä¿¡": 3139,
      "Ġ0": 3140,
      "æ²¿": 3141,
      "ç§ĳåŃ¦": 3142,
      "ãĤ¹ãĥ¼ãĥĳ": 3143,
      "åĪ°": 3144,
      "åĸľ": 3145,
      "ãĥ©ãĤ¯ãĤ¿ãĥ¼": 3146,
      "è£½éĢł": 3147,
      "èįī": 3148,
      "éĬĢè¡Į": 3149,
      "AS": 3150,
      "âĢĶâĢĶ": 3151,
      "ãģ®è¿": 3152,
      "ãģ®æĪĲ": 3153,
      "ä¹ĭ": 3154,
      "ãģ®å®¶": 3155,
      "ä¸»ãģ«": 3156,
      "ãĥĭãĥĥãĤ¯": 3157,
      "æĢ§ãĤĴ": 3158,
      "¥½ãģĹ": 3159,
      "ãĥĹãĥŃãĤ°ãĥ©ãĥł": 3160,
      "ãĥ«ãĤ¯": 3161,
      "ãģĦãģĭ": 3162,
      "äºĴ": 3163,
      "æ§ĭæĪĲ": 3164,
      "ãĤ¿ãĤ¤ãĥĪãĥ«": 3165,
      "ãĤ¦ãĥ³ãĥī": 3166,
      "æ²¹": 3167,
      "è¦³åħī": 3168,
      "åīĬ": 3169,
      "ç´Ķ": 3170,
      "å½ĵç¤¾": 3171,
      "ãģ®æĮĩ": 3172,
      "éŁĵåĽ½": 3173,
      "ä¹ĹãĤĬ": 3174,
      "åºĹèĪĹ": 3175,
      "ãģ®ç«": 3176,
      "AL": 3177,
      "ãĥ¼ãĥĪãĥ«": 3178,
      "éľ²": 3179,
      "ç¬¬äºĮ": 3180,
      "ãģ®ä¸Ģéĥ¨": 3181,
      "ãģ®çĬ": 3182,
      "éľĩ": 3183,
      "ãĤ¢ãĥĬ": 3184,
      "ãĤ¹ãģ¯": 3185,
      "ew": 3186,
      "ãģķãģĽãģŁ": 3187,
      "å®īåħ¨": 3188,
      "éĢ£ç¶ļ": 3189,
      "ãģ®å°ı": 3190,
      "æŃ¯": 3191,
      "åĽ°": 3192,
      "ãĤīãģĹ": 3193,
      "ãĢĤãĢİ": 3194,
      "ãģªãģıãģª": 3195,
      "éģħ": 3196,
      "æĺ¨": 3197,
      "ãģ®çĻº": 3198,
      "ãĤªãĥªãĤ¸": 3199,
      "ãĥ³ãĥŀ": 3200,
      "ãģ¨ãģĹãģ¦ãĤĤ": 3201,
      "ãĥ¼ãĤ½": 3202,
      "åİ³": 3203,
      "ãĥªãĥ³": 3204,
      "ä¼¸": 3205,
      "ãģıãĤĮ": 3206,
      "ãģ¨ãģªãĤĬãģ¾ãģĻ": 3207,
      "ãĤ¤ãĤ¯": 3208,
      "ãģ®å»": 3209,
      "çĪĨ": 3210,
      "äº¤éĢļ": 3211,
      "ãĤ±ãĥ¼ãĤ·ãĥ§ãĥ³": 3212,
      "ä½ľæĪĲ": 3213,
      "mm": 3214,
      "ãģ¾ãģ§ãģ«": 3215,
      "æľ¬å½ĵãģ«": 3216,
      "è©¦é¨ĵ": 3217,
      "éģ¿": 3218,
      "äºĭãģĮ": 3219,
      "ãĥªãĤª": 3220,
      "æĵį": 3221,
      "çĲĨè§£": 3222,
      "ãĥĨãĤ¯": 3223,
      "æĢĿãģĦ": 3224,
      "ä»ĸãģ®": 3225,
      "æĶ¿æ²»": 3226,
      "æ°ĹãģĮ": 3227,
      "âĨ": 3228,
      "ãģĭãĤı": 3229,
      "ãģĻãĤĭãģŁãĤģãģ«": 3230,
      "æĩ": 3231,
      "ç¶Ń": 3232,
      "ãĤĴéĸĭå§ĭ": 3233,
      "ãĤ¿ãĤ¤ãĥł": 3234,
      "ãĤĴæĦŁ": 3235,
      "å®ŁéļĽ": 3236,
      "æľŁå¾ħ": 3237,
      "ãģĴãĤĭ": 3238,
      "ãģ©ãģĵ": 3239,
      "ãĢįãĢĤ": 3240,
      "æ§ĺãģ«": 3241,
      "ãģ®ç¥": 3242,
      "èĩªåĭķè»Ĭ": 3243,
      "çĶ£æ¥Ń": 3244,
      "åħħ": 3245,
      "ãģ®ä¸ĭ": 3246,
      "éĩİçĲĥ": 3247,
      "ä¾ĭãģĪãģ°": 3248,
      "çīĩ": 3249,
      "¼Ķ": 3250,
      "åŁ·": 3251,
      "éģ¸æīĭæ¨©": 3252,
      "ä¸Ģç·Ĵãģ«": 3253,
      "ãĥªãĥ¥": 3254,
      "ãģģ": 3255,
      "ãģĵãģĿ": 3256,
      "æľīåĲį": 3257,
      "ãĤĬè¿Ķ": 3258,
      "ãĤ·ãĥ¼": 3259,
      "ä¸Ńãģ®": 3260,
      "ãģ¨ãģ«": 3261,
      "é«ª": 3262,
      "ç¨®é¡ŀ": 3263,
      "å«": 3264,
      "ãĤĴçµĲ": 3265,
      "å¿«": 3266,
      "ãĥŃãĥ³": 3267,
      "ãĤ°ãĥ¬": 3268,
      "PC": 3269,
      "æ´Ĺ": 3270,
      "èªķ": 3271,
      "çŃĭ": 3272,
      "æįķ": 3273,
      "èĲ½ãģ¡": 3274,
      "ä¸Ģåº¦": 3275,
      "æ³ķäºº": 3276,
      "å¸ĮæľĽ": 3277,
      "æĻ´": 3278,
      "åĩºãģĻ": 3279,
      "AM": 3280,
      "35": 3281,
      "å®ĮæĪĲ": 3282,
      "ç½ª": 3283,
      "AC": 3284,
      "ãģ®çķ": 3285,
      "ãģķãĤĵãģĮ": 3286,
      "ãĥ¼ãĥľ": 3287,
      "ãĤ¤ãĤ¿ãĥªãĤ¢": 3288,
      "æĪ¦ãģ§": 3289,
      "com": 3290,
      "ãĤ»ãĥ«": 3291,
      "ãģ®çĲ": 3292,
      "èĢħãģ«": 3293,
      "äº¤æıĽ": 3294,
      "ãģĭãĤĮãģŁ": 3295,
      "æĹ¥æľ¬ãģ®": 3296,
      "åĢį": 3297,
      "è§£èª¬": 3298,
      "æµ·éģĵ": 3299,
      "ä¸Ģçķª": 3300,
      "ãģ§ãģįãģŁ": 3301,
      "ãĤ¯ãĥ©ãĤ¹": 3302,
      "ãģĹãģ¦ãģĬ": 3303,
      "çķªåı·": 3304,
      "pp": 3305,
      "EN": 3306,
      "ãĤªãĥªãĤ¸ãĥĬãĥ«": 3307,
      "Ġa": 3308,
      "æ³¨æĦı": 3309,
      "åĪ¸": 3310,
      "åĨ¬": 3311,
      "ãĤ«ãĥĥãĥĹ": 3312,
      "æĹħè¡Į": 3313,
      "ce": 3314,
      "è»Ĭä¸¡": 3315,
      "æĶ»æĴĥ": 3316,
      "ç·ıåĲĪ": 3317,
      "ãĤ³ãĥ¼ãĤ¹": 3318,
      "åī¯": 3319,
      "ãĤĪãģĦ": 3320,
      "éį": 3321,
      "ãģĿãģĵãģ§": 3322,
      "å¤§åĪĩ": 3323,
      "ãĥĨãĥł": 3324,
      "li": 3325,
      "ãģ®æĶ¯": 3326,
      "ãģ®æĸ°": 3327,
      "ç¥Ŀ": 3328,
      "ãģĭãĤĮ": 3329,
      "ãģ©ãĤĵãģª": 3330,
      "44": 3331,
      "åĲĪãģĦ": 3332,
      "ãĤĴçµĮãģ¦": 3333,
      "æĻĤæľŁ": 3334,
      "è¤ĩæķ°": 3335,
      "ãĥŁãĥ¥ãĥĭ": 3336,
      "ãĤĴéĸĭ": 3337,
      "ãĤ½ãĥ³": 3338,
      "èŀį": 3339,
      "éģĭçĶ¨": 3340,
      "åĪ»": 3341,
      "éĥ¨å±ĭ": 3342,
      "±éŁ¿": 3343,
      "ãģĹãģŁãĤĤãģ®": 3344,
      "ãģ®å¥³": 3345,
      "æ¯Ķè¼ĥ": 3346,
      "ãĥ©ãĥł": 3347,
      "å¼·ãģĦ": 3348,
      "ãģĭãģªãĤĬ": 3349,
      "åįĪ": 3350,
      "éģİãģĶ": 3351,
      "ãģĭãģĳãģ¦": 3352,
      "è£½ä½ľ": 3353,
      "éĤ¦": 3354,
      "ows": 3355,
      "åħ¼": 3356,
      "ãĥľãĥ¼ãĥ«": 3357,
      "IS": 3358,
      "ä¸Ģäºº": 3359,
      "éĽ»åŃĲ": 3360,
      "ãĤĴçį²å¾Ĺ": 3361,
      "åĲ¦": 3362,
      "ãģªãĤīãģªãģĦ": 3363,
      "å»ºç¯ī": 3364,
      "ä¼ĿãģĪ": 3365,
      "ãģĭãģ¤ãģ¦": 3366,
      "ãģ®é«ĺ": 3367,
      "ãģ¨ãģķãĤĮãĤĭ": 3368,
      "ãģ¬": 3369,
      "ãĤ±ãĥ¼ãĤ¹": 3370,
      "ãģ®åħ¬": 3371,
      "45": 3372,
      "çĢ": 3373,
      "ãģ®æł": 3374,
      "ãĥ¼ãĥĭãĥ³ãĤ°": 3375,
      "éģĵè·¯": 3376,
      "ãģĿãģ®ãģŁãĤģ": 3377,
      "ãĥĩãĤ¸": 3378,
      "çĽ´æİ¥": 3379,
      "ãģ«åĪĨ": 3380,
      "ãģ»ãģ¼": 3381,
      "ht": 3382,
      "ãģĹãģ¦ãģĦãģı": 3383,
      "ĠĠĠ": 3384,
      "çĸĳ": 3385,
      "å®īå¿ĥ": 3386,
      "Ġn": 3387,
      "ãģ«åŁº": 3388,
      "è¬Ŀ": 3389,
      "ãĤĴæ®": 3390,
      "åĨįãģ³": 3391,
      "ãĥ³ãĤ½": 3392,
      "æİ¡çĶ¨": 3393,
      "ãģ®åĭķ": 3394,
      "å¯©": 3395,
      "Ġ5": 3396,
      "åĭĿåĪ©": 3397,
      "æ¨¹": 3398,
      "ãģĮãģĤ": 3399,
      "Â¥": 3400,
      "å¤ļãģıãģ®": 3401,
      "åħ¬åľĴ": 3402,
      "è¿°ãģ¹": 3403,
      "ãģ®åıĸ": 3404,
      "ãģ¦ãģĦãģı": 3405,
      "ãģĪãģªãģĦ": 3406,
      "ãĥ³ãĥį": 3407,
      "==": 3408,
      "ãģ®éĸĵ": 3409,
      "ex": 3410,
      "ãĤīãģı": 3411,
      "ãģ®ç¨": 3412,
      "åł±åĳĬ": 3413,
      "AP": 3414,
      "ãĤĴçŁ¥": 3415,
      "ãĥ¼ãĤĦ": 3416,
      "UR": 3417,
      "éģĭè»¢": 3418,
      "ãģ®åŃ¦": 3419,
      "ãĤ·ãĥ³ãĤ°ãĥ«": 3420,
      "éĥ¨ãģ«": 3421,
      "å¦»": 3422,
      "æĲį": 3423,
      "åºķ": 3424,
      "å®Łæĸ½": 3425,
      "ç¸®": 3426,
      "ãģĽãģļ": 3427,
      "hone": 3428,
      "ãĥ¨ãĥ¼ãĥŃ": 3429,
      "ãģĹãģ¦ãģ¯": 3430,
      "ãģĤãĤĭãģĦãģ¯": 3431,
      "ãĤ³ãĥŁ": 3432,
      "ãģ«è¦ĭ": 3433,
      "ä½ıå®ħ": 3434,
      "å¸ĿåĽ½": 3435,
      "¬ä»»": 3436,
      "FC": 3437,
      "ãĤ¢ãĥ³": 3438,
      "ãĤ¹ãĤ±": 3439,
      "èŃ°ä¼ļ": 3440,
      "åĿĩ": 3441,
      "ãģ«å¯¾ãģĹ": 3442,
      "ãĤ¢ãĤ¸ãĤ¢": 3443,
      "çķ°ãģªãĤĭ": 3444,
      "åĮ»çĻĤ": 3445,
      "ãĥ¼ãĥŁ": 3446,
      "ia": 3447,
      "ä¾¡åĢ¤": 3448,
      "èĩªãĤī": 3449,
      "åĲĪãĤıãģĽãģ¦": 3450,
      "æĹ¥ãģ«ãģ¯": 3451,
      "åºģ": 3452,
      "ãĤ·ãĥ§ãĥĥãĥĹ": 3453,
      "ãģĬãģĻãģĻãĤģ": 3454,
      "ãĤĴæīĭ": 3455,
      "æĥħåł±ãĤĴ": 3456,
      "éĥ¨éļĬ": 3457,
      "åı¯èĥ½ãģ§ãģĻ": 3458,
      "æĬĺ": 3459,
      "ãĥ¼ãĥĻ": 3460,
      "å¥ª": 3461,
      "«çĶ»": 3462,
      "ãĤ¦ãĤ§ãĥĸ": 3463,
      "åĬ´åĥį": 3464,
      "190": 3465,
      "çĤ¹ãģ§": 3466,
      "ãģĿãģĨãģ§ãģĻ": 3467,
      "æ¯İæĹ¥": 3468,
      "ãģ®æķĻ": 3469,
      "2004": 3470,
      "ãĢĤãĢį": 3471,
      "åħĦ": 3472,
      "é£Ľè¡Į": 3473,
      "ç¸Ħ": 3474,
      "èªķçĶŁ": 3475,
      "¤ľ": 3476,
      "ĿéĽ¢": 3477,
      "å¤īåĮĸ": 3478,
      "ãĥ¨ãĥ¼ãĥŃãĥĥãĥĳ": 3479,
      "ãģ®èĪ": 3480,
      "æĸ°ãģŁãģª": 3481,
      "----": 3482,
      "éĥ·": 3483,
      "ãģ¾ãģ§ãģ¯": 3484,
      "ãĤ¢ãĤ¤ãĥĨãĥł": 3485,
      "EC": 3486,
      "åī¤": 3487,
      "éļ£": 3488,
      "çĭ¬ç«ĭ": 3489,
      "ãģ«ä¼´": 3490,
      "æľĪãģ«ãģ¯": 3491,
      "ãģĿãĤĮãĤĴ": 3492,
      "ãģ®æı": 3493,
      "ãģ«åŁºãģ¥": 3494,
      "ãģ®åİŁ": 3495,
      "å°ıãģķ": 3496,
      "ãĤ¤ãĥ©": 3497,
      "å·¡": 3498,
      "indows": 3499,
      "æ³¨çĽ®": 3500,
      "ãĤ³ãĥ¡ãĥ³ãĥĪ": 3501,
      "ãĤĴæ¥½ãģĹ": 3502,
      "ãģ«ãģªãĤĬãģ¾ãģĹãģŁ": 3503,
      "ãģłãģĳãģ§ãģªãģı": 3504,
      "åĪĳ": 3505,
      "ãģ¤ãģ¤": 3506,
      "å¤§ãģª": 3507,
      "å®Ļ": 3508,
      "ãģĵãģ¨ãģĮãģ§ãģįãĤĭ": 3509,
      "ãĥĹãĥĪ": 3510,
      "æ»ħ": 3511,
      "åĽ£ä½ĵ": 3512,
      "åĨħãģ§": 3513,
      "ãģ®æĹ¥": 3514,
      "è²·ãģĦ": 3515,
      "åĩºãģĹãģŁ": 3516,
      "æľŃ": 3517,
      "ãģĤãĤī": 3518,
      "Ġ10": 3519,
      "åĩ¦çĲĨ": 3520,
      "ãĥ¼ãģ§": 3521,
      "ãģ®å½±éŁ¿": 3522,
      "èĢĥãģĪãĤĭ": 3523,
      "ãĥŃãĥĥãĤ¯": 3524,
      "ãĥ¢ãĥ³": 3525,
      "ãģ®ç¾": 3526,
      "ãĥĭãĥ¥ãĥ¼ãĥ": 3527,
      "ãĢįãĢģ": 3528,
      "æĪĲéķ·": 3529,
      "ãĤĴæ±Ĥ": 3530,
      "èĪİ": 3531,
      "ç¾½": 3532,
      "æĹ¥æľ¬èªŀ": 3533,
      "æļ®": 3534,
      "é£¾": 3535,
      "è¨´": 3536,
      "ãģĪãģ¾ãģĻ": 3537,
      "æĪ¿": 3538,
      "ãģĭãģĦ": 3539,
      "ãģ¿ãģª": 3540,
      "ãĥ³ãĤĦ": 3541,
      "èĩ¨": 3542,
      "é¡§": 3543,
      "ãģ«ãģĻãĤĭ": 3544,
      "æ··": 3545,
      "ãĤĴæĽ¸": 3546,
      "ID": 3547,
      "ãģ®åħ¨": 3548,
      "ãĤĭãģĵãģ¨": 3549,
      "åİļ": 3550,
      "åĲ¸": 3551,
      "ãģ®æķ°": 3552,
      "ãģ¡ãģª": 3553,
      "åģ¥åº·": 3554,
      "æŁĦ": 3555,
      "ä»¥æĿ¥": 3556,
      "ãĤĴåĲ«ãĤĢ": 3557,
      "US": 3558,
      "ãģ¨ãģĦãģĨãģĵãģ¨": 3559,
      "çĶ»éĿ¢": 3560,
      "ãģĹãģ£ãģĭãĤĬ": 3561,
      "é¹": 3562,
      "ãģ²ãģ¨ãģ¤": 3563,
      "ãģļãĤĮ": 3564,
      "çŁ¥ãĤīãģĽ": 3565,
      "åį±": 3566,
      "æ¤ľç´¢": 3567,
      "æĤ©": 3568,
      "å¤¢": 3569,
      "ãĥ³ãĥļ": 3570,
      "ãĥ¼ãĥįãĥĥãĥĪ": 3571,
      "ç¹°": 3572,
      "æ¶²": 3573,
      "ãĥĹãĥ©ãĤ¤": 3574,
      "gle": 3575,
      "åı¯èĥ½ãģª": 3576,
      "ãģ«ãģĶ": 3577,
      "ãģ®çĲĨ": 3578,
      "ãĥ³ãĥĹãĥ«": 3579,
      "ãģĭãĤīãĤĤ": 3580,
      "çī©èªŀ": 3581,
      "ãģ«æĪ»": 3582,
      "æĬķè³ĩ": 3583,
      "ãģ¾ãģ¨ãĤģ": 3584,
      "art": 3585,
      "è©³ç´°": 3586,
      "å¥½ãģįãģª": 3587,
      "ãĥĦãĤ¢": 3588,
      "ma": 3589,
      "ç¤¾éķ·": 3590,
      "ãĥ¼ãĥĵ": 3591,
      "å¿ħè¦ģãģª": 3592,
      "æ²»çĻĤ": 3593,
      "ç¥¨": 3594,
      "ç¤¼": 3595,
      "est": 3596,
      "ãģĵãģ®æĻĤ": 3597,
      "äººãĤĴ": 3598,
      "éĩįè¦ģãģª": 3599,
      "è£ı": 3600,
      "ç´łæĿĲ": 3601,
      "ãģ®æ¯": 3602,
      "ãĥŃãĥ¼": 3603,
      "CD": 3604,
      "ãģ¨ãģĹãģ¦ãģĦãĤĭ": 3605,
      "åĪ¶åº¦": 3606,
      "ãĥ©ãĥ«": 3607,
      "æ±ŁæĪ¸": 3608,
      "ãĤŃãĥ£ãĥ©ãĤ¯ãĤ¿ãĥ¼": 3609,
      "ãģ®ä¸Ģãģ¤": 3610,
      "ãģĵãĤĮãĤĴ": 3611,
      "æ¬ł": 3612,
      "ãĤĴè¡Įãģ£ãģŁ": 3613,
      "ãĥ³ãģ¨": 3614,
      "æ¬§": 3615,
      "ãģ®åŁº": 3616,
      "åĪº": 3617,
      "è¨Ģèªŀ": 3618,
      "ãģ®åĪĨ": 3619,
      "èıľ": 3620,
      "ãĥ³ãĤŃãĥ³ãĤ°": 3621,
      "ãģ®ãĥª": 3622,
      "ä¼ļåł´": 3623,
      "ct": 3624,
      "ãĥĲãĥ¼ãĤ¸": 3625,
      "è¥²": 3626,
      "æģĭ": 3627,
      "ãģ®æģ": 3628,
      "ãĤĴçĻºè¡¨": 3629,
      "å¤īãĤı": 3630,
      "æĬķç¨¿": 3631,
      "ãģ®ãĤµ": 3632,
      "ãĤ¦ãĥł": 3633,
      "ĠSt": 3634,
      "ãģĹãģıãģ¯": 3635,
      "æĤ£": 3636,
      "ãĥ¼ãĥĸãĥ«": 3637,
      "ãĤºãĥł": 3638,
      "ãģ®æľ¬": 3639,
      "è¿ĳãģı": 3640,
      "?ãĢį": 3641,
      "åĮħ": 3642,
      "ç¯Ħ": 3643,
      "å¹¼": 3644,
      "ãģĮçĶŁ": 3645,
      "ãĤ«ãĥª": 3646,
      "ãĥ¼ãģ¨": 3647,
      "è¾ŀ": 3648,
      "ãĥĵãĤ¢": 3649,
      "çı¾åľ¨ãģ¯": 3650,
      "ãģ«å¯¾å¿ľ": 3651,
      "ãĤ¤ãĥ³ãĤ¹ãĥĪ": 3652,
      "åıĤçħ§": 3653,
      "å£ģ": 3654,
      "ãģ¿ãĤĵãģª": 3655,
      "ãĥ¼ãĤ·ãĥ§": 3656,
      "ãĥ¬ãĥ¼ãĥĪ": 3657,
      "ãģ®æ±": 3658,
      "Web": 3659,
      "æµ·è»į": 3660,
      "ãĤ°ãĥŃ": 3661,
      "çµ±éłĺ": 3662,
      "ä½ķãģĭ": 3663,
      "ãĥŁãĥĭ": 3664,
      "æľ¬ä½ľ": 3665,
      "éĬĥ": 3666,
      "ãģĺãĤĥãģªãģĦ": 3667,
      "æĺ¯": 3668,
      "ãĤĴéģ¸": 3669,
      "æĽľæĹ¥": 3670,
      "æµ¦": 3671,
      "Ġh": 3672,
      "ãĥŁãĥ¥ãĥ¼ãĤ¸": 3673,
      "ãģıãģªãĤĭ": 3674,
      "if": 3675,
      "æķĻä¼ļ": 3676,
      "ä»ı": 3677,
      "ãĥŁãĥ³ãĤ°": 3678,
      "äºĭæķħ": 3679,
      "æ³¨æĸĩ": 3680,
      "ãĤĴãģĹãģ¦": 3681,
      "ãĤħ": 3682,
      "ãĥ¶æľĪ": 3683,
      "æ°ĹæĮģãģ¡": 3684,
      "wit": 3685,
      "ãĤ¢ãĤ¦ãĥĪ": 3686,
      "ãĥĨãĤ£ãĥĸ": 3687,
      "éĻ£": 3688,
      "ãĤ¿ãĥ³": 3689,
      "æĺłåĥı": 3690,
      "Ġ2020": 3691,
      "è§£æ±º": 3692,
      "ãĥ¯ãĥ¼ãĥī": 3693,
      "åĲįåīį": 3694,
      "èĥŀ": 3695,
      "our": 3696,
      "ãģĿãģ®ãģ¾ãģ¾": 3697,
      "oogle": 3698,
      "ãģ«å°±ä»»": 3699,
      "ãĥ³ãĥĬ": 3700,
      "éĽª": 3701,
      "Ġ:": 3702,
      "ãģ®ãģĨãģ¡": 3703,
      "å¾ħãģ¡": 3704,
      "ãĥ¡ãĥ¼ãĥĪãĥ«": 3705,
      "å·±": 3706,
      "ãģ°ãģĭãĤĬ": 3707,
      "36": 3708,
      "ãĤĴãģĹãģŁ": 3709,
      "ãģ¤ãģĳ": 3710,
      "ãĤĴä½¿ãģ£ãģ¦": 3711,
      "ãĥ¼ãĥ¡": 3712,
      "ãģ¯ãģªãģĦ": 3713,
      "æĭħ": 3714,
      "ãģ«éĢ²": 3715,
      "éłĪ": 3716,
      "ãĥĥãĤµ": 3717,
      "ç§Ĵ": 3718,
      "éº»": 3719,
      "ãĤĴç¤º": 3720,
      "OK": 3721,
      "é»Ħ": 3722,
      "ä»ĬæĹ¥": 3723,
      "ãģĹãģ¦ãģĦãģªãģĦ": 3724,
      "å¬": 3725,
      "ãģ§ãģĻãģĭ": 3726,
      "å¹¹": 3727,
      "æģµ": 3728,
      "åĪĿæľŁ": 3729,
      "ãĤĴæİ¢": 3730,
      "èĴ": 3731,
      "æĥĳ": 3732,
      "çĬ¯": 3733,
      "åĮĹæµ·éģĵ": 3734,
      "çµĮæŃ´": 3735,
      "ãģ®åĪ©": 3736,
      "ä¹³": 3737,
      "ãģĸãģ¾": 3738,
      "ãģ¯ãģļ": 3739,
      "åħŃ": 3740,
      "ãĤĵãģ«": 3741,
      "ãĥ³ãĥľ": 3742,
      "ãĥŀãĥį": 3743,
      "ãģ«å¿ľ": 3744,
      "ãĤ«ãĥ¡ãĥ©": 3745,
      "ãĥ¬ãĥĻãĥ«": 3746,
      "å¡ģ": 3747,
      "æĽ¸ãģį": 3748,
      "åĳ¨è¾º": 3749,
      "é§Ĳ": 3750,
      "éļł": 3751,
      "ãĤ¹ãĥ¡": 3752,
      "å©¦": 3753,
      "ä»Ĭå¾Į": 3754,
      "ãĥĥãĥĶ": 3755,
      "èªĺ": 3756,
      "ç¾İè¡ĵ": 3757,
      "è¡£": 3758,
      "ãĤĤãģĤãĤĬ": 3759,
      "ãģĿãĤĮãģĮ": 3760,
      "ãĥ©ãĤ¸ãĤª": 3761,
      "ãģ®çĤ": 3762,
      "ãģķãĤĮãģ¾ãģĹãģŁ": 3763,
      "ãģ®æ¸": 3764,
      "èĦļ": 3765,
      "ãģ®è§": 3766,
      "ãģ®çĬ¶": 3767,
      "åħ¥åĬĽ": 3768,
      "ãĤ·ãĥ£ãĥ«": 3769,
      "ãĢħãģ«": 3770,
      "ãĥ¬ãĥ¼ãĤ¹": 3771,
      "ãĤ³ãĥŁãĥ¥ãĥĭ": 3772,
      "ãĥĩãĤ¸ãĤ¿ãĥ«": 3773,
      "Ġ6": 3774,
      "æĻ®éĢļ": 3775,
      "ãĥĭãĥ³ãĤ°": 3776,
      "çĻºè¦ĭ": 3777,
      "ãģıãģ¨": 3778,
      "ãģ®çĦ": 3779,
      "ä¿ĿåŃĺ": 3780,
      "ãĤ¤ãĥ³ãĤ¿ãĥ¼ãĥįãĥĥãĥĪ": 3781,
      "éŃħåĬĽ": 3782,
      "ãģĦãģ¤ãĤĤ": 3783,
      "åĲĽ": 3784,
      "æĢ§ãģĮ": 3785,
      "åŃ¦èĢħ": 3786,
      "èªįãĤģ": 3787,
      "ãģ®ãģł": 3788,
      "æĮĳ": 3789,
      "åħĪçĶŁ": 3790,
      "æ±ºåĭĿ": 3791,
      "ãĥģãĥ§": 3792,
      "ãĤªãĤ¹": 3793,
      "ãĥ¼ãĥ©ãĥ³ãĥī": 3794,
      "ãĤ¢ãĥ©": 3795,
      "LE": 3796,
      "ãģ®çłĶç©¶": 3797,
      "ãĤ¢ãĤ¯ãĤ»ãĤ¹": 3798,
      "ãĥĳãĥ³": 3799,
      "çī¹å®ļ": 3800,
      "ãĤĴä¸Ńå¿ĥãģ«": 3801,
      "éģ£": 3802,
      "çĶ¨ãģĦ": 3803,
      "īå¼·": 3804,
      "é¹¿": 3805,
      "§ĺ": 3806,
      "çĬ¬": 3807,
      "ãģĬãĤĬãģ¾ãģĻ": 3808,
      "ãģ¯å¤§": 3809,
      "48": 3810,
      "æĹ©ãģı": 3811,
      "æļĹ": 3812,
      "ãĤĴçĶŁ": 3813,
      "ä¿ĿéĻº": 3814,
      "éĢ£åĲĪ": 3815,
      "åľ°åħĥ": 3816,
      "çı¾ä»£": 3817,
      "çĢ¬": 3818,
      "è¦ģç´ł": 3819,
      "ate": 3820,
      "éĩĿ": 3821,
      "å®ŁéļĽãģ«": 3822,
      "æĮĩå°İ": 3823,
      "2003": 3824,
      "åºĥåĳĬ": 3825,
      "éĢ±éĸĵ": 3826,
      "ãģĦãģļãĤĮ": 3827,
      "èŃ°åĵ¡": 3828,
      "ãĥĳãĥ¼ãĥĪ": 3829,
      "éģķãģĨ": 3830,
      "æķ°ãģ¯": 3831,
      "éģİãģİ": 3832,
      "ä¸Ĭãģ«": 3833,
      "æ¥ŃçķĮ": 3834,
      "ãģĮå¤§": 3835,
      "çŀ": 3836,
      "ãĥĻãĤ¹ãĥĪ": 3837,
      "ãĥ¬ãĥ¼ãĤ·ãĥ§ãĥ³": 3838,
      "äºĭåĭĻæīĢ": 3839,
      "æī±": 3840,
      "ç±³åĽ½": 3841,
      "åı¤å±ĭ": 3842,
      "åĩºæĿ¥ãĤĭ": 3843,
      "æľĢå¾Į": 3844,
      "ãĤĴç´¹ä»ĭ": 3845,
      "åĲĪè¡Ĩ": 3846,
      "ãģ§ãģĤãĤĭãģĮ": 3847,
      "ãģ®è©±": 3848,
      "èĪĪåĳ³": 3849,
      "åįĶåĬĽ": 3850,
      "ãģĴãģŁ": 3851,
      "ãĥĳãĤ¹": 3852,
      "ãĤĴè¡ĮãģĦ": 3853,
      "ıé¡Į": 3854,
      "St": 3855,
      "çĶ¨æĦı": 3856,
      "PS": 3857,
      "å¿ħãģļ": 3858,
      "éĽ»æ°Ĺ": 3859,
      "èĩªåĪĨãģ®": 3860,
      "èĪŀåı°": 3861,
      "ãģ®æ§ĺ": 3862,
      "ãģ¨ãĤĬ": 3863,
      "ãĤıçĶ³éĲĥ": 3864,
      "ãģĭãĤīãģªãģĦ": 3865,
      "åĽ½å®¶": 3866,
      "ãĥĶãĤ¢": 3867,
      "ãĤ´ãĥ¼ãĥ«": 3868,
      "ãģ«ãĤĪãĤĭãģ¨": 3869,
      "ore": 3870,
      "ãĥ©ãĥ³ãĤŃãĥ³ãĤ°": 3871,
      "ine": 3872,
      "ãģ«ãģĬãģĦãģ¦ãģ¯": 3873,
      "ãĤ¤ãĤº": 3874,
      "éĥ¨éĸĢ": 3875,
      "ãģķãģ¾ãģĸãģ¾": 3876,
      "ack": 3877,
      "å°ĤçĶ¨": 3878,
      "ãģ«å¾ĵ": 3879,
      "æľĿé®®": 3880,
      "ãģ®ãģªãģĦ": 3881,
      "åĲĪè¡ĨåĽ½": 3882,
      "ãĥ«ãģ¯": 3883,
      "æĿ¡ä»¶": 3884,
      "ãģĳãģªãģĦ": 3885,
      "ãĤ·ãĥ¼ãĥ³": 3886,
      "ãĥķãĤ¡ãĥ³": 3887,
      "ãĥĹãĥ¬ãĤ¼": 3888,
      "ãĤ¯ãĥªãĥĥãĤ¯": 3889,
      "ãģķãĤĵãģ¯": 3890,
      "éļľå®³": 3891,
      "æĸĻéĩĳ": 3892,
      "å½¢å¼ı": 3893,
      "æīķãģĦ": 3894,
      "èĩ´ãģĹãģ¾ãģĻ": 3895,
      "ãĤªãĥ¼ãĤ¹ãĥĪ": 3896,
      "ãģĻãģĶ": 3897,
      "33": 3898,
      "ãĤĴè¨ĺéĮ²": 3899,
      "å¡ļ": 3900,
      "ãĥĸãĥ©ãĤ¦": 3901,
      "RE": 3902,
      "åĺ": 3903,
      "éĩ£": 3904,
      "ãĥ¼ãĤ²": 3905,
      "ãģ®ç©": 3906,
      "éĻĲãĤĬ": 3907,
      "ä¸ĥ": 3908,
      "ãģ®éķ·": 3909,
      "ãĤªãĥĸ": 3910,
      "ĠãĢĲ": 3911,
      "Ġ)": 3912,
      "åį´": 3913,
      "ãĥĥãĤ«ãĥ¼": 3914,
      "ãĥŃãĥ¼ãĥŀ": 3915,
      "åĽ½æ°ĳ": 3916,
      "ãĥĭãĥ¥ãĥ¼ãĥ¨": 3917,
      "è£ģåĪ¤": 3918,
      "ers": 3919,
      "çĹħéĻ¢": 3920,
      "all": 3921,
      "ãĤĤãģĤãĤĬãģ¾ãģĻ": 3922,
      "ãĤ¤ãĥ³ãĤ°": 3923,
      "åĭķçī©": 3924,
      "å¡Ĺ": 3925,
      "ãģĪãģ¦ãģĦãĤĭ": 3926,
      "ä¾µ": 3927,
      "çĶ±æĿ¥": 3928,
      "ãĤ®ãĥ¼": 3929,
      "ãģĵãĤĮãģĮ": 3930,
      "åľ°ãģ«": 3931,
      "è¾¼ãĤĢ": 3932,
      "ç¦ıå²¡": 3933,
      "ãģĮå¢Ĺ": 3934,
      "ãĤĴæ¸": 3935,
      "ãĥªãĤ¢ãĥ«": 3936,
      "ãģ®èĭ": 3937,
      "ãģĭãĤĤãģĹãĤĮãģ¾ãģĽãĤĵ": 3938,
      "ãģ£ãģ±": 3939,
      "Ġ#": 3940,
      "ãĤ®ãĥ£": 3941,
      "ãĤĴéĢģ": 3942,
      "ãģ®æ²": 3943,
      "ãĤĴè¶ħ": 3944,
      "ãģ¾ãģĹãģŁãģĮ": 3945,
      "ãģ£ãģıãĤĬ": 3946,
      "è¿ĳãģĦ": 3947,
      "éĭ": 3948,
      "åįģåĪĨ": 3949,
      "äººãģ¨": 3950,
      "ãĥ³ãĤ´": 3951,
      "æ¹ĸ": 3952,
      "ãĥĭãĥ¥ãĥ¼ãĥ¨ãĥ¼ãĤ¯": 3953,
      "ãĥĩãĤª": 3954,
      "Ġfor": 3955,
      "ãĤ¦ãĥ«": 3956,
      "......": 3957,
      "çļĨæ§ĺ": 3958,
      "ãĤĴè¿İ": 3959,
      "ãģªãģľ": 3960,
      "ãĥ¼ãĥ´": 3961,
      "ä¸Ģãģ¤": 3962,
      "32": 3963,
      "ãģĻãĤĭãģĵãģ¨ãģ¯": 3964,
      "æ¨ªæµľ": 3965,
      "éĽĳèªĮ": 3966,
      "ãģ®æĭ": 3967,
      "æ²¡": 3968,
      "iPhone": 3969,
      "åħį": 3970,
      "ãĤ¯ãĤ¹": 3971,
      "ç«¹": 3972,
      "ãģªãģ©ãģ«": 3973,
      "ç§ĺ": 3974,
      "æķ·": 3975,
      "ãĥ³ãģ§": 3976,
      "ãĤ¸ãĥ§ãĥ³": 3977,
      "å®ĩå®Ļ": 3978,
      "ãĥĲãĥ¬": 3979,
      "æľĪãģĭãĤī": 3980,
      "ãĤĴéĻ¤": 3981,
      "æ³Ĭ": 3982,
      "ãĥĦãĥ¼ãĥ«": 3983,
      "ãĥªãĤ¨": 3984,
      "æĬ¼": 3985,
      "ãĥĽãĥ¼ãĥ«": 3986,
      "ç·´ç¿Ĵ": 3987,
      "ä¸ĸä»£": 3988,
      "åĩºçīĪ": 3989,
      "åĲįåı¤å±ĭ": 3990,
      "ä¸ĭè¨ĺ": 3991,
      "å¹´ãģ¾ãģ§": 3992,
      "ãģ®å§": 3993,
      "ãĤµãĥ¼ãĥĲ": 3994,
      "å¤ĸåĽ½": 3995,
      "äººãĤĤ": 3996,
      "éĢģæĸĻ": 3997,
      "èĵ": 3998,
      "æ¼«çĶ»": 3999,
      "ãĤĴæĦı": 4000,
      "II": 4001,
      "ãģ®åħĪ": 4002,
      "åĨħãģ®": 4003,
      "ãģ»ãģĨ": 4004,
      "è²¢": 4005,
      "æľīåĬ¹": 4006,
      "å°ĳãģªãģı": 4007,
      "å¡©": 4008,
      "ãĤĪãĤį": 4009,
      "ãĤıãģŁ": 4010,
      "ãģ®åħ¥": 4011,
      "èŃ¦å¯Ł": 4012,
      "ord": 4013,
      "OM": 4014,
      "åºĥãģı": 4015,
      "55": 4016,
      "ãģ®ãģ¡": 4017,
      "ä¾¿åĪ©": 4018,
      "è¿·": 4019,
      "ç«ĭãģ¤": 4020,
      "é«ĺçŃīåŃ¦æł¡": 4021,
      "ãĤĴæıı": 4022,
      "ãģłãģĳãģ©": 4023,
      "é¨İ": 4024,
      "âĢĵ": 4025,
      "ãģ®çľ": 4026,
      "åıĸå¼ķ": 4027,
      "ãģŁãģ¡ãģĮ": 4028,
      "åŃĺåľ¨ãģĻãĤĭ": 4029,
      "ãĤ¯ãĥ©ãĤ¤": 4030,
      "åŃĲãģ©ãĤĤ": 4031,
      "éĸ£": 4032,
      "ãĤ¢ãĥķ": 4033,
      "ãĤ³ãĥ³ãĥĨãĥ³ãĥĦ": 4034,
      "ãģ®æĺł": 4035,
      "æ®¿": 4036,
      "ãĥ¼ãĥĬãĥ¼": 4037,
      "Ġy": 4038,
      "FA": 4039,
      "ãģ®ä¸ĸçķĮ": 4040,
      "ãĥ³ãĥĶãĥ¥": 4041,
      "ãĥĥãĤ»ãĥ¼ãĤ¸": 4042,
      "ãĥ¼ãĥ¼": 4043,
      "ãĤ¨ãĤ¤": 4044,
      "æ¿ĥ": 4045,
      "ãģ¾ãģĦ": 4046,
      "æħ£": 4047,
      "ãģ®å¼·": 4048,
      "çĭ¬èĩª": 4049,
      "ãģ«åıĸãĤĬ": 4050,
      "ãģĽãģ¦": 4051,
      "ãģ®ãģ§ãģ¯ãģªãģĦ": 4052,
      "è´": 4053,
      "ãĥªãĥĥãĥĪ": 4054,
      "å¥¥": 4055,
      "å®Łãģ¯": 4056,
      "éĨ": 4057,
      "ãģĬæ°Ĺ": 4058,
      "ãĤĴéĽĨ": 4059,
      "åħ±åĲĮ": 4060,
      "åħ±åĴĮ": 4061,
      "ãĤ¨ãĤ¢": 4062,
      "ãģ®å¢": 4063,
      "ãģ®èĳ": 4064,
      "ãĥ¯ãĥ¼ãĥ«ãĥī": 4065,
      "ãģķãģ¾ãģĸãģ¾ãģª": 4066,
      "ãĥĲãĤ¤ãĤ¹": 4067,
      "å¼ķéĢĢ": 4068,
      "è¸ı": 4069,
      "ãĥĪãĤ¥": 4070,
      "ãĤģãģ¦ãģĦãĤĭ": 4071,
      "ãĥķãĤ¡ãĤ¤": 4072,
      "ãģĹãģıãģĬé¡ĺãģĦ": 4073,
      "ãģķãĤĮãģŁãģĮ": 4074,
      "38": 4075,
      "å¯Ŀ": 4076,
      "ç©ºéĸĵ": 4077,
      "ãĤĴå¼ķãģį": 4078,
      ")ãĥ»": 4079,
      "ç¾İåĳ³": 4080,
      "ãĤĴæ´»": 4081,
      "01": 4082,
      "ãģĮåħ¥": 4083,
      "ra": 4084,
      "ãĤıãģªãģĦ": 4085,
      "2021": 4086,
      "å¿ł": 4087,
      "ãĤĴåıĹãģĳãģ¦": 4088,
      "ãĤ¹ãĥĪãĥ¼ãĥª": 4089,
      "åĪĹè»Ĭ": 4090,
      "æīĵãģ¡": 4091,
      "èĦ³": 4092,
      "ãĥŃãĥ¼ãĥ«": 4093,
      "ãģ«èĩ³": 4094,
      "ãĥ¼ãĤ³": 4095,
      "BS": 4096,
      "å¤§çµ±éłĺ": 4097,
      "ä»Ĭå¹´": 4098,
      "ãģ®å½¢": 4099,
      "æ²ĸç¸Ħ": 4100,
      "ãĥĬãĤ¤": 4101,
      "ãĤ¹ãĥŀãĥ¼ãĥĪ": 4102,
      "å¤ªéĥİ": 4103,
      "å¤§æĪ¦": 4104,
      "2002": 4105,
      "og": 4106,
      "å·¥æ¥Ń": 4107,
      "æľĪãģ®": 4108,
      "ãĤĤãģ®ãģ§ãģĤãĤĭ": 4109,
      "åºĬ": 4110,
      "ãģĵãģ®ãĤĪãģĨãģª": 4111,
      "ãģĹãģ¦ãģĦãģŁãģĮ": 4112,
      "èª¤": 4113,
      "ãĤĴæĭħå½ĵ": 4114,
      "©ļ": 4115,
      "ãĥ¼ãĥĢãĥ¼": 4116,
      "ãĥĥãĤ±": 4117,
      "ãģ®åķĨ": 4118,
      "ãģ®å»º": 4119,
      "ãģĮå¤ļãģı": 4120,
      "ãģ®è©¦": 4121,
      "å·¥åł´": 4122,
      "ãĤīãĤĮãģªãģĦ": 4123,
      "å²Ĳ": 4124,
      "ä¾Ŀéł¼": 4125,
      "ie": 4126,
      "ãģĮé«ĺ": 4127,
      "ãģ§ãģĤãģ£ãģŁãģĮ": 4128,
      "OP": 4129,
      "ãĥķãĤ©ãĥ«": 4130,
      "ãģĶåĪ©çĶ¨": 4131,
      "ãģ®èĬ": 4132,
      "è©±é¡Į": 4133,
      "åĤ¾": 4134,
      "åĪĨæŀĲ": 4135,
      "çłĶ": 4136,
      "å¿ĺ": 4137,
      "The": 4138,
      "]ãĢĤ": 4139,
      "ãģ®çĦ¡": 4140,
      "300": 4141,
      "ç¸ģ": 4142,
      "åŃĲãģĮ": 4143,
      "ãĥĺãĥ«": 4144,
      "åŃ¦ç¿Ĵ": 4145,
      "æħ¶": 4146,
      "è·¯ç·ļ": 4147,
      "èª²é¡Į": 4148,
      "çĽ®æ¨Ļ": 4149,
      "ãĤĴåıĹãģĳãĤĭ": 4150,
      "ç´°èĥŀ": 4151,
      "éĢ£è¼ī": 4152,
      "ãģ®åĲĮ": 4153,
      "è¡ĮçĤº": 4154,
      "ĠIn": 4155,
      "ç§»åĭķ": 4156,
      "è¿«": 4157,
      "ĠãģĮ": 4158,
      "åĭĿãģ¡": 4159,
      "åĢĭäººæĥħåł±": 4160,
      "ãģįãģ£": 4161,
      "Ġ7": 4162,
      "ãĤ«ãĥĬ": 4163,
      "éĤĦ": 4164,
      "ET": 4165,
      "ä¸įå®ī": 4166,
      "æĨ²": 4167,
      "ãģ§ãģ¯ãģĤãĤĬãģ¾ãģĽãĤĵ": 4168,
      "ãĤªãĥ¼ãĥĹãĥ³": 4169,
      "ãģ®åģ": 4170,
      "ãģ®æ°´": 4171,
      "ãģ«åħ¥ãĤĬ": 4172,
      "ãģ¦ãĤĭ": 4173,
      "è¡Ŀ": 4174,
      "è¨ĺè¼ī": 4175,
      "é£¯": 4176,
      "2001": 4177,
      "å¼±": 4178,
      "èĩªå·±": 4179,
      "ãģ¨ãģįãģ«": 4180,
      "ard": 4181,
      "ç·ĳ": 4182,
      "ãĥįãĥĥãĥĪãĥ¯ãĥ¼ãĤ¯": 4183,
      "ob": 4184,
      "ä¸»å¼µ": 4185,
      "ãĤªãĥ³ãĥ©ãĤ¤ãĥ³": 4186,
      "ãĥ¼ãĥĴ": 4187,
      "ãģªãĤĵãģ¦": 4188,
      "ãĤ¹ãĥŀãĥĽ": 4189,
      "éģĶæĪĲ": 4190,
      "æµ®": 4191,
      "46": 4192,
      "ãģ®è£½": 4193,
      "æ¾": 4194,
      "ãĤ«ãĤ¦ãĥ³ãĥĪ": 4195,
      "ãĤ®ãĥ¥": 4196,
      "ãĤ¢ãĥ¡ãĥªãĤ«åĲĪè¡ĨåĽ½": 4197,
      "¹åĪ¤": 4198,
      "å·¥äºĭ": 4199,
      "åį³": 4200,
      "Ġg": 4201,
      "ãĥĲãĥ¼ãĤ¸ãĥ§ãĥ³": 4202,
      "ãģ®æĿ±": 4203,
      "éĪ": 4204,
      "åīįãģ®": 4205,
      "ãĥĢãĥł": 4206,
      "æħ®": 4207,
      "ãĥĥãĤ¸": 4208,
      "ãģŁãģ¡ãģ¯": 4209,
      "ãģķãĤĵãģ®": 4210,
      "ãĥ¡ãĤ¤ãĥ³": 4211,
      "ãģĹãģ¦ãģįãģŁ": 4212,
      "ãĥĢãĥ«": 4213,
      "è·ĿéĽ¢": 4214,
      "AI": 4215,
      "æĻĤãģ¯": 4216,
      "ãĥĨãĤ¹ãĥĪ": 4217,
      "èĢĲ": 4218,
      "ãģ£ãģ¦ãģįãģŁ": 4219,
      "ãĢįãĢģãĢĮ": 4220,
      "ãĥ³ãĥĶãĥĥãĤ¯": 4221,
      "ãģĦãģŁãģłãģĳãģ¾ãģĻ": 4222,
      "ãĤĴãģ¯ãģĺãĤģ": 4223,
      "å½©": 4224,
      "æ¥½ãģĹãģ¿": 4225,
      "ãģªãģ©ãĤĤ": 4226,
      "ãĥ³ãĥįãĥ«": 4227,
      "ãģ®åł´åĲĪãģ¯": 4228,
      "Ġth": 4229,
      "se": 4230,
      "ãĤ¹ãĤ¿ãĤ¸ãĤª": 4231,
      "å°ĳãģªãģĦ": 4232,
      "åĮĸãģĹãģŁ": 4233,
      "éłĳ": 4234,
      "åıĤèĢĥ": 4235,
      "åĶ±": 4236,
      "ãĥ¼ãĤ»": 4237,
      "âĢĻ": 4238,
      "ä¼ļéķ·": 4239,
      "åħ¨ãģı": 4240,
      "âĶĢ": 4241,
      "37": 4242,
      "ãģªãģĭ": 4243,
      "æĽ¿ãģĪ": 4244,
      "ãĤĴæĮģãģ¡": 4245,
      "In": 4246,
      "ãĤ¹ãĥĨãĥ¼ãĤ¸": 4247,
      "éĿ¢çĻ½": 4248,
      "1990": 4249,
      "èī¯ãģı": 4250,
      "ãģĻãĤĭãģĮ": 4251,
      "å¬ī": 4252,
      "ãĤ¤ãĥ¤": 4253,
      "ãģ®çĶŁ": 4254,
      "ik": 4255,
      "ãģ®æµģ": 4256,
      "ãĤŃãĤ·": 4257,
      "çīĽ": 4258,
      "ãĥ¼ãĥĿ": 4259,
      "ãĤĴãģĹãģ¦ãģĦãĤĭ": 4260,
      "ãĤ¹ãĥª": 4261,
      "äºĭå®Ł": 4262,
      "åĪ¶éĻĲ": 4263,
      "ãĤīãĤĮãģ¾ãģĻ": 4264,
      "ĠãĤ¢": 4265,
      "è¨ĢãģĨ": 4266,
      "ãĥŀãĥ¼ãĤ¯": 4267,
      "ãĤĪãģĨãģ§ãģĻ": 4268,
      "ä½ĵãģ¯": 4269,
      "ĠãĤĴ": 4270,
      "åºĥãģĮ": 4271,
      "ãĤĬãģĮ": 4272,
      "åºĥå³¶": 4273,
      "ãģ«åĩºåł´": 4274,
      "éĽ°": 4275,
      "ä¼Ŀçµ±": 4276,
      "ç¥ŀç¤¾": 4277,
      "çı¾åľ¨ãģ®": 4278,
      "ä¸Ģè¦§": 4279,
      "ãģĦãģıãģ¤ãģĭ": 4280,
      "ãĤ¹ãĥļãĤ¤ãĥ³": 4281,
      "æĿŁ": 4282,
      "ãĥķãĤ©ãĥ¼ãĥŀ": 4283,
      "ãģ®æĶ¹": 4284,
      "ãģĻãģĲãģ«": 4285,
      "ud": 4286,
      "éĽ°åĽ²": 4287,
      "ãĤ¢ãĥīãĥ¬ãĤ¹": 4288,
      "æ¡ĪåĨħ": 4289,
      "ãĤ³ãĥ³ãĤµ": 4290,
      "è£ħç½®": 4291,
      "ãĤ¨ãĥªãĤ¢": 4292,
      "ĠY": 4293,
      "ãĤ¨ãĤ¹ãĥĪ": 4294,
      "ãĥ¡ãĥ³ãĥĲãĥ¼": 4295,
      "ãĤ¯ãĥ©ãĤ¦": 4296,
      "99": 4297,
      "ãĤīãĤĮãģ¦ãģĦãģŁ": 4298,
      "çĨĬ": 4299,
      "ãģ®åķıé¡Į": 4300,
      "åĢĻè£ľ": 4301,
      "æŃ»åİ»": 4302,
      "æľªæĿ¥": 4303,
      "çĦ¡ãģĦ": 4304,
      "ãģĵãģ¨ãģĮãģ§ãģįãģ¾ãģĻ": 4305,
      "åİŁåĽł": 4306,
      "ä¸Ģæĸ¹ãģ§": 4307,
      "ãĥķãĤ£ãĥ«": 4308,
      "ãģ¯ä¸Ģ": 4309,
      "æ´»çĶ¨": 4310,
      "ãģ®åĪĿ": 4311,
      "ç·Ĭ": 4312,
      "å±ķç¤º": 4313,
      "AD": 4314,
      "ä¸Ī": 4315,
      "ç©ºæ¸¯": 4316,
      "pt": 4317,
      "çĩĥ": 4318,
      "ãĥ¼ãĤ¸ãĥ£": 4319,
      "ãģ¨è¨ĢãģĨ": 4320,
      "ä½ıæ°ĳ": 4321,
      "æĪ¦éĹĺ": 4322,
      "ãģĿãĤĮãĤī": 4323,
      "ãģ®çı": 4324,
      "Google": 4325,
      "å°ıåŃ¦æł¡": 4326,
      "è²¬ä»»": 4327,
      "ç¹ĭ": 4328,
      "ãĥıãĤ¦ãĤ¹": 4329,
      "èĻ«": 4330,
      "æģĲ": 4331,
      "âĹĭ": 4332,
      "ãģĮéĢ²": 4333,
      "ãģĮçĻºçĶŁ": 4334,
      "æĳĺ": 4335,
      "åĲĮæĻĤãģ«": 4336,
      "ãģ®å¤ĸ": 4337,
      "æİ¥ç¶ļ": 4338,
      "ãģĹãģ¾ãģĹãĤĩãģĨ": 4339,
      "éĽ²": 4340,
      "ãĤ¢ãĥł": 4341,
      "ãģĹãģŁãĤī": 4342,
      "ãģĶãģĸãģĦãģ¾ãģĹãģŁ": 4343,
      "èħ¹": 4344,
      "èª¿æķ´": 4345,
      "ç·¨æĪĲ": 4346,
      "è³ªåķı": 4347,
      "ãĥĵãĥĩãĤª": 4348,
      "ä½ľæĽ²": 4349,
      "ãĥĥãĤº": 4350,
      "ãģĮãģĦ": 4351,
      "ãģ®æ´»åĭķ": 4352,
      "èıĮ": 4353,
      "ãģ¯ãģĦ": 4354,
      "éĻ¸è»į": 4355,
      "å·¨": 4356,
      "åľ°çĲĥ": 4357,
      "ãĥ©ãĥľ": 4358,
      "çłĤ": 4359,
      "ãģ«éģ¸": 4360,
      "ãģłãģ£ãģŁãģĮ": 4361,
      "è²¢çĮ®": 4362,
      "ãģķãĤĴ": 4363,
      "ãģ®è§£": 4364,
      "æĹ¥ãĢħ": 4365,
      "ãģĮãģ§ãģįãĤĭ": 4366,
      "ãģ£ãģ¦ãĤĭ": 4367,
      "ãĤĴãģĶç´¹ä»ĭ": 4368,
      "å¾ĮåįĬ": 4369,
      "åĲĪãģĨ": 4370,
      "ç¶ļãģı": 4371,
      "è©°": 4372,
      "å¤§å¤ī": 4373,
      "ãģ¦ãģıãģłãģķãģĦ": 4374,
      "çľł": 4375,
      "ãĤ»ãĥŁ": 4376,
      "ãģ®æŃ´": 4377,
      "é¶": 4378,
      "ont": 4379,
      "å½¢æĪĲ": 4380,
      "ä½ľå®¶": 4381,
      "ãĥ¼ãĤ¼": 4382,
      "éĲĥç·ĴçĶ³éĲĥ": 4383,
      "åį°è±¡": 4384,
      "Ġv": 4385,
      "witter": 4386,
      "ãģªãģ®ãģĭ": 4387,
      "çĽĽãĤĬ": 4388,
      "Ġ8": 4389,
      "èĥ½åĬĽ": 4390,
      "éĺ¿": 4391,
      "ãģ®æµ·": 4392,
      "Windows": 4393,
      "é¾": 4394,
      "æĭ¡å¤§": 4395,
      "ãĤ¹ãĥļãĥ¼ãĤ¹": 4396,
      "åĬĩåł´": 4397,
      "ãģªãĤĤãģ®": 4398,
      "ãģ®æĤ": 4399,
      "å°ıèª¬": 4400,
      "âĹĨ": 4401,
      "éľĬ": 4402,
      "ä¸Ĭãģ®": 4403,
      "ect": 4404,
      "Ġby": 4405,
      "è±Ĩ": 4406,
      "é©ļ": 4407,
      "ãģķãģ«": 4408,
      "ãĥĹãĥŃãĥĩãĥ¥": 4409,
      "å¼·ãģı": 4410,
      "åĪ¤æĸŃ": 4411,
      "åĭīå¼·": 4412,
      "å¤©çļĩ": 4413,
      "Ġis": 4414,
      "ãģ¾ãģļãģ¯": 4415,
      "åľı": 4416,
      "ãĥĵãĥ¼": 4417,
      "ä½ľæĪ¦": 4418,
      "ort": 4419,
      "çĻºè¡Į": 4420,
      "ãģ«ãģªãĤĭãģ¨": 4421,
      "ãģ©ãģĨãģĭ": 4422,
      "!?": 4423,
      "è£ķ": 4424,
      "å¯¾æĪ¦": 4425,
      "éķ·ãģĦ": 4426,
      "æĺ¯éĿŀ": 4427,
      "å¡¾": 4428,
      "ãĥ³ãĤ±": 4429,
      "æĦıèŃĺ": 4430,
      "ity": 4431,
      "ãĤ¹ãģ®": 4432,
      "æ°ĳä¸»": 4433,
      "ä»¥ä¸ĭãģ®": 4434,
      "ä¹¾": 4435,
      "ãģĵãĤĮãģ¾ãģ§": 4436,
      "ue": 4437,
      "é£Łäºĭ": 4438,
      "ãĤĴãģ¨": 4439,
      "34": 4440,
      "ãĤĴåıĹè³ŀ": 4441,
      "å«Į": 4442,
      "æĦŁæŁĵ": 4443,
      "éĢ£éĤ¦": 4444,
      "çŁ¥èŃĺ": 4445,
      "æ¼¢": 4446,
      "æĹ¬": 4447,
      "ä¿³": 4448,
      "ä½¿ãģĨ": 4449,
      "çĶĺ": 4450,
      "ãģ®é«ĺãģĦ": 4451,
      "æĿ¥æŃ´": 4452,
      "ip": 4453,
      "ãĤ³ãĥŃãĥĬ": 4454,
      "è¨ĵ": 4455,
      "æ¼Ķå¥ı": 4456,
      "ä½ĵãģĮ": 4457,
      "ãģįãģ£ãģĭãģĳ": 4458,
      "ãĤĴæ®ĭ": 4459,
      "å¼Ĭ": 4460,
      "åĦĢ": 4461,
      "ä¸Ĭè¨ĺ": 4462,
      "çī©ãĤĴ": 4463,
      "ãģĤãģ¨": 4464,
      "éĽ£ãģĹãģĦ": 4465,
      "è¨Ĺ": 4466,
      "ãģĵãģ¨ãĤĤãģĤãĤĭ": 4467,
      "ç«¶æĬĢ": 4468,
      "åĲįãģ¯": 4469,
      "ãĤĤãģ£ãģ¨": 4470,
      "æŁĶ": 4471,
      "åĭŁéĽĨ": 4472,
      "VD": 4473,
      "èĸĦ": 4474,
      "ãģ«ãģĤãģ£ãģŁ": 4475,
      "éĢı": 4476,
      "ç¥ĸ": 4477,
      "äººãĢħ": 4478,
      "ãĥ´ãĤ©": 4479,
      "ãĤ±ãĤ¢": 4480,
      "å¤±æķĹ": 4481,
      "è»¸": 4482,
      "å½¢ãģ§": 4483,
      "æļ´": 4484,
      "ä»Ļ": 4485,
      "æ©Łä¼ļ": 4486,
      "å¾ĵæĿ¥": 4487,
      "ãģ®åĲĪ": 4488,
      "åĪ°çĿĢ": 4489,
      "ãģļãģ«": 4490,
      "ä¹Ŀå·ŀ": 4491,
      "æ¶Īè²»": 4492,
      "å¤§æŃ£": 4493,
      "ãģ®ãĥŃ": 4494,
      "ç¶Ļç¶ļ": 4495,
      "æĲŃè¼ī": 4496,
      "ãĤĴéĢļãģĺãģ¦": 4497,
      "NS": 4498,
      "ãĥĳãĤ½": 4499,
      "Ġ\"": 4500,
      "ç¶ļãģĳãĤĭ": 4501,
      "ĻçľŁ": 4502,
      "ãģ¤ãģ¾ãĤĬ": 4503,
      "åĲ¹": 4504,
      "ãģĮå§ĭ": 4505,
      "ãĥŀãĥ¼ãĤ±": 4506,
      "ãĤĴæĮĻ": 4507,
      "ãģĵãģ¨ãģĮãģĤãĤĭ": 4508,
      "è±ª": 4509,
      "ãģĿãĤĤ": 4510,
      "ãĤĴåŃ¦": 4511,
      "æĸ¹åĲĳ": 4512,
      "ç¤¾åĵ¡": 4513,
      "å´©": 4514,
      "åĢŁ": 4515,
      "é¾į": 4516,
      "äººçĶŁ": 4517,
      "ãĤĴæµ": 4518,
      "ãĥ«ãĥī": 4519,
      "åħ¬æ¼Ķ": 4520,
      "éºĹ": 4521,
      "ãĤ¤ãĥ³ãĥĨ": 4522,
      "æķĳ": 4523,
      "åĭ§": 4524,
      "èªįå®ļ": 4525,
      "CM": 4526,
      "ãģ®ä½ľåĵģ": 4527,
      "çłĶç©¶æīĢ": 4528,
      "^^": 4529,
      "ãģ§è¦ĭ": 4530,
      "ãĤĴèģŀ": 4531,
      "ç°¡åįĺãģ«": 4532,
      "ãĤ¤ãĥ³ãĤ¹ãĥĪãĥ¼ãĥ«": 4533,
      "è³ĩæĸĻ": 4534,
      "ç¤İ": 4535,
      "åĪĨéĩİ": 4536,
      "Ġãģ¨": 4537,
      "ãģ®æŃ´åı²": 4538,
      "ãģ®çı¾": 4539,
      "ãģĻãĤĭãĤĤãģ®": 4540,
      "ç§»ç±į": 4541,
      "ãĥ¦ãĥ¼ãĤ¶ãĥ¼": 4542,
      "èĬ¸è¡ĵ": 4543,
      "ãģ®æŃ»": 4544,
      "ãĤĴå®Łæĸ½": 4545,
      "ãģ¡ãģ¯": 4546,
      "ãĤ¨ãĥįãĥ«": 4547,
      "ãĤ¹ãĥĪãĥ©": 4548,
      "are": 4549,
      "ãģ£ãģ¦ãģ¿": 4550,
      "ãĤĴåĭĻãĤģãģŁ": 4551,
      "ãĥ¢ãĥİ": 4552,
      "ç¹ģ": 4553,
      "åĶ¯": 4554,
      "é«ĺéĢŁ": 4555,
      "åıĸç·ł": 4556,
      "çĤİ": 4557,
      "ãĥ³ãĤ¿ãĥ«": 4558,
      "ãģ®åıį": 4559,
      "ãģ®åĪ¶": 4560,
      "ãģĻãĤĭãģ¨ãģĦãģĨ": 4561,
      "ãĥŁãĥ¼": 4562,
      "ãģįãģ¦": 4563,
      "åĲĮç¤¾": 4564,
      "ãĥĸãĥ©ãĥĥãĤ¯": 4565,
      "ãĢģãĢģ": 4566,
      "è¼Ŀ": 4567,
      "188": 4568,
      "å¾©å¸°": 4569,
      "æĿ¯": 4570,
      "ãģĻãĤĭãģĵãģ¨ãģĮãģ§ãģįãģ¾ãģĻ": 4571,
      "Ġ[": 4572,
      "æĸĩåŃ¦": 4573,
      "è²¸": 4574,
      "æ½ľ": 4575,
      "ãģĭãģĽ": 4576,
      "ill": 4577,
      "è¦ĸèģ´": 4578,
      "ãģĻãĤĭãģªãģ©": 4579,
      "ãĥ©ãĤ¤ãĥķ": 4580,
      "ãĢħãģ¨": 4581,
      "ãģ§ãģ«": 4582,
      "æĶ¹åĸĦ": 4583,
      "1980": 4584,
      "ãģ£ãģ¦ãģĦãģªãģĦ": 4585,
      "èĩªå®ħ": 4586,
      "æĶ¿çŃĸ": 4587,
      "ä¸įæĺİ": 4588,
      "äº¤æµģ": 4589,
      "ãĤ¯ãĤ·ãĥ§ãĥ³": 4590,
      "ãģ®èģ": 4591,
      "ãĤĴéĢ²": 4592,
      "âĢķâĢķ": 4593,
      "å¯¿": 4594,
      "æ¸ĭ": 4595,
      "ãģ®ç¨®": 4596,
      "ä¼ļãģĦ": 4597,
      "ãĤĴå¤ī": 4598,
      "ĠĠĠĠĠĠĠĠĠĠĠĠĠĠĠĠ": 4599,
      "ãĥ©ãĥ³ãĥĢ": 4600,
      "ãģ§ãģįãģ¾ãģĽãĤĵ": 4601,
      "ãĥĹãĥ¬ãĤ¼ãĥ³ãĥĪ": 4602,
      "ãĤĴæĴ": 4603,
      "éĥ¨ãģ®": 4604,
      "ä»ķæ§ĺ": 4605,
      "¹´": 4606,
      "æĻĤãģ«ãģ¯": 4607,
      "èŃ²": 4608,
      "æĶ¿æ¨©": 4609,
      "ES": 4610,
      "ãģ¨ãģĹãģ¦ãģ®": 4611,
      "çĶ¨ãģ®": 4612,
      "ãĤĴæĺ": 4613,
      "ãĥ¡ãĥ«": 4614,
      "ãģ®æ§ĭ": 4615,
      "ãģ®ä¸Ńãģ«": 4616,
      "ãģ®èĥ": 4617,
      "ãĥ³ãĥĿ": 4618,
      "ãĥ£ãĥ«": 4619,
      "ãģ©ãģ¡ãĤī": 4620,
      "JR": 4621,
      "ãĤ»ãĤŃãĥ¥": 4622,
      "ãģ®çĹ": 4623,
      "ãĤ¹ãĤ¤": 4624,
      "ãĤĴè¡¨": 4625,
      "ä½ĵåĪ¶": 4626,
      "æ¢°": 4627,
      "ç¶ŃæĮģ": 4628,
      "ãĥ¬ãĥĥãĥĪ": 4629,
      "ç¾İå®¹": 4630,
      "75": 4631,
      "å°ģ": 4632,
      "ight": 4633,
      "ãĤ¸ãĥ£ãĥ³": 4634,
      "ãĥīãĥ©ãĤ¤": 4635,
      "æī±ãģĦ": 4636,
      "ãĥĳãĥª": 4637,
      "åıįå¯¾": 4638,
      "ãģĦãĤı": 4639,
      "Ġ9": 4640,
      "æľĢéģ©": 4641,
      "åĳ¨å¹´": 4642,
      "ãĥ¼ãĥªãĥ³ãĤ°": 4643,
      "çī§": 4644,
      "ãĤ³ãĥ³ãĥĶãĥ¥": 4645,
      "39": 4646,
      "ãģıãģ¦": 4647,
      "ãĥ¡ãĥĭãĥ¥ãĥ¼": 4648,
      "ĠãģĬ": 4649,
      "ist": 4650,
      "ãģ®æĸ¹ãģĮ": 4651,
      "ãģ®ç¾İ": 4652,
      "ãĤ¢ãĥ³ãĥĪ": 4653,
      "å»ĥæŃ¢": 4654,
      "ãģ®æ°Ĺ": 4655,
      "æŀł": 4656,
      "æł¸": 4657,
      "èĩªæ²»": 4658,
      "è¨±åı¯": 4659,
      "ãĤ¤ãĥ³ãĤ¿ãĥĵãĥ¥ãĥ¼": 4660,
      "ãģĭãģªãģĭ": 4661,
      "ãĤĴæĦŁãģĺ": 4662,
      "ive": 4663,
      "ãģ¥ãģıãĤĬ": 4664,
      "ãĥŃãĥ¼ãĥī": 4665,
      "age": 4666,
      "ãĥ¼ãĥİ": 4667,
      "ãĤĵãģ§ãģĦãģŁ": 4668,
      "ãĤ¢ãĥª": 4669,
      "HE": 4670,
      "ãģ«ãģı": 4671,
      "ãĤ¸ãĥĥãĥĪ": 4672,
      "éĩĳèŀį": 4673,
      "éĩĪ": 4674,
      "ãģ£ãģŁãĤī": 4675,
      "ãĥĲãĥĥ": 4676,
      "ãĤ¤ãĥ³ãĥķ": 4677,
      "æĸ¹å¼ı": 4678,
      "ãģĤãĤĬãģĮãģ¨ãģĨãģĶãģĸãģĦãģ¾ãģĻ": 4679,
      "IM": 4680,
      "å¨ĺ": 4681,
      "éĳ": 4682,
      "ãĥĢãĥ¼": 4683,
      "çµ±åĲĪ": 4684,
      "ãĤ¹ãģĮ": 4685,
      "âĶģâĶģâĶģâĶģ": 4686,
      "TV": 4687,
      "æ¹¯": 4688,
      "ãĥŃãĥ³ãĥī": 4689,
      "çªĵ": 4690,
      "è¨Īç®Ĺ": 4691,
      "ãģĵãĤĵãģ«": 4692,
      "ãĥīãĥª": 4693,
      "ãģ¶ãĤĬ": 4694,
      "ä¸ģçĽ®": 4695,
      "ç¡": 4696,
      "éħįç½®": 4697,
      "æ©ŁåĻ¨": 4698,
      "ä»ĺè¿ĳ": 4699,
      "çĤŃ": 4700,
      "èįĴ": 4701,
      "ãĤ®ãĥª": 4702,
      "éĲĥç·ĴçĶ³éĲĥç·ĴçĶ³éĲĥ": 4703,
      "ãĥ¡ãĥ¼ãĤ«ãĥ¼": 4704,
      "è³Ľ": 4705,
      "ãģ®åĨħå®¹": 4706,
      "ãģ®æĬĢ": 4707,
      "ãĤ¸ãĥ¼": 4708,
      "ãģ®å¤ļãģı": 4709,
      "ä¸įåĭķ": 4710,
      "ãĥĽãĥ¼ãĥłãĥļãĥ¼ãĤ¸": 4711,
      "çĻºå±ķ": 4712,
      "ç¬¬ä¸ī": 4713,
      "ãģĮä¸Ģ": 4714,
      "é¬": 4715,
      "å¾¹": 4716,
      "çĮ«": 4717,
      "å¸Ĥæ°ĳ": 4718,
      "ãģ¯ãģĬ": 4719,
      "éı": 4720,
      "æĮĳæĪ¦": 4721,
      "189": 4722,
      "Ġl": 4723,
      "ãĤ°ãĥª": 4724,
      "ãĥĨãĤŃ": 4725,
      "è¶ĬãģĹ": 4726,
      "éłĳå¼µ": 4727,
      "ãģįãĤĬ": 4728,
      "ãģĤãģ£ãģ¦": 4729,
      "ãģĮãģĭ": 4730,
      "ãģĦãģŁãģĦ": 4731,
      "RO": 4732,
      "æĢª": 4733,
      "ãģ®æ®": 4734,
      "ãģ®èŃ": 4735,
      "æĹ¥éĸĵ": 4736,
      "ãģ®åĨį": 4737,
      "ãģĻãģ¹ãģį": 4738,
      "03": 4739,
      "ãģ®åĨĻçľŁ": 4740,
      "åĪĿãģ®": 4741,
      "æ¯İå¹´": 4742,
      "æ¡ľ": 4743,
      "èĩªåĪĨãģĮ": 4744,
      "ãĤ¨ãĥĥãĥĪ": 4745,
      "ãģıãĤĮãģŁ": 4746,
      "ãĥĳãĥ©": 4747,
      "ãģķãĤĮãģ¦ãģĦãģªãģĦ": 4748,
      "ãĤŃãĥ£ãĥªãĤ¢": 4749,
      "ure": 4750,
      "ãĥıãĥ¼ãĥī": 4751,
      "å£²ãĤĬ": 4752,
      "æ¬¡ä¸ĸçķĮ": 4753,
      "1999": 4754,
      "ãģ«ãĤĪãĤĮãģ°": 4755,
      "æ¤įçī©": 4756,
      "éģĭè¡Į": 4757,
      "ãģ£ãģ¦ãģĬãĤĬãģ¾ãģĻ": 4758,
      "éĽ°åĽ²æ°Ĺ": 4759,
      "ãĥ¡ãĥĥãĤ»ãĥ¼ãĤ¸": 4760,
      "éļĨ": 4761,
      "æķ´åĤĻ": 4762,
      "èªįèŃĺ": 4763,
      "ãĤ¹ãĥĪãĥª": 4764,
      "ãģĦãģ¦ãģĦãģŁ": 4765,
      "ãģĵãģł": 4766,
      "åĪ·": 4767,
      "å¯Ĵ": 4768,
      "ãĤĴè¦ĭãģ¦": 4769,
      "05": 4770,
      "Ġre": 4771,
      "ãģĦãģ£ãģŁ": 4772,
      "ãģĦãģł": 4773,
      "åº¦ãģ¯": 4774,
      "ãĤĪãģĨãģ«ãģªãĤĭ": 4775,
      "ãĤĴä½¿ãģĨ": 4776,
      "ãģ§éĸĭåĤ¬": 4777,
      "ãĥ«ãĥķ": 4778,
      "ç¨²": 4779,
      "å®ļæľŁ": 4780,
      "ãĤĤãģ®ãģĮ": 4781,
      "ç«¥": 4782,
      "æ¤ľæŁ»": 4783,
      "ãģ£ãģ¦ãģĹãģ¾ãģĨ": 4784,
      "ãģªãģıãģ¦": 4785,
      "ãģ®å£°": 4786,
      "ãĤĴä¸Ģ": 4787,
      "HK": 4788,
      "VE": 4789,
      "éĪ´": 4790,
      "ãĢĤ)": 4791,
      "å®ĮäºĨ": 4792,
      "åĽ½ãģ®": 4793,
      "çı¾åł´": 4794,
      "ãģ®åĢĭ": 4795,
      "BC": 4796,
      "ãģ¯ãĤĬ": 4797,
      "åĲ«ãģ¾ãĤĮ": 4798,
      "è¢ĭ": 4799,
      "åıĸç·łå½¹": 4800,
      "ãĤ«ãĥ¬": 4801,
      "ãģ®çİ": 4802,
      "äººåħ¬": 4803,
      "ãĤĴæİ¡çĶ¨": 4804,
      "ãĥĿãĥ¼ãĥ«": 4805,
      "ãģĭãģªãģĦ": 4806,
      "èĢĥãģĪãģ¦": 4807,
      "ä¿ĥ": 4808,
      "ãģ®åħ±": 4809,
      "IP": 4810,
      "ãģĻãĤĭå¿ħè¦ģ": 4811,
      "08": 4812,
      "ä¿¡éł¼": 4813,
      "ãģ®æĶ¿": 4814,
      "å½ĵãģŁãĤĬ": 4815,
      "ãĥ¼ãĥĨãĤ£ãĤ¹ãĥĪ": 4816,
      "åī£": 4817,
      "å½¦": 4818,
      "ãĤĴåıĸå¾Ĺ": 4819,
      "æĸ¹ãĤĤ": 4820,
      "ãģļãģ¤": 4821,
      "ãģ®åĮĹ": 4822,
      "ãģ®å¤§ãģį": 4823,
      "ãĤĴè¿½": 4824,
      "å®¶åºŃ": 4825,
      "ãģ®æĦŁ": 4826,
      "æĸ¹éĿ¢": 4827,
      "ãģĭãĤĤ": 4828,
      "ãģ®æ¥": 4829,
      "ãģĻãģ§ãģ«": 4830,
      "ä¸ŃåŃ¦æł¡": 4831,
      "ãģ¦ãģĦãģ¦": 4832,
      "é¼": 4833,
      "ãģ®è·": 4834,
      "ç´łæĻ´": 4835,
      "ãĥ³ãĤµãĥ¼": 4836,
      "ãĢıãĢİ": 4837,
      "ãĤĴæıĲ": 4838,
      "ãģ£ãģ¦ãģĦãģı": 4839,
      "ãģ«æĿ¥": 4840,
      "åĬĽãģĮ": 4841,
      "ee": 4842,
      "è¡ĮæĶ¿": 4843,
      "å½ĵåĪĿãģ¯": 4844,
      "è¨ĺè¿°": 4845,
      "ä¼¯": 4846,
      "ãģ®åıĤ": 4847,
      "ice": 4848,
      "ãĤªãĥķãĤ£": 4849,
      "å¼Ĭç¤¾": 4850,
      "åºĥãģĦ": 4851,
      "65": 4852,
      "ãģ®èµ": 4853,
      "ãĤ»ãĤŃãĥ¥ãĥªãĥĨãĤ£": 4854,
      "ãĤ¢ãĥ¼ãĥĪ": 4855,
      "çĶŁãģ¾ãĤĮãģŁ": 4856,
      "ä»ģ": 4857,
      "ãģĮãģĬ": 4858,
      "ä»²éĸĵ": 4859,
      "çĪµ": 4860,
      "åŃĲãģ¯": 4861,
      "ç¹°ãĤĬè¿Ķ": 4862,
      "æºĸåĤĻ": 4863,
      "åıĸå¾Ĺ": 4864,
      "ãĤĴæ¼Ķ": 4865,
      "ãĤ½ãĥķãĥĪãĤ¦ãĤ§ãĤ¢": 4866,
      "éĲĥç·ĴçĶ³": 4867,
      "ç²¾ç¥ŀ": 4868,
      "çĨŁ": 4869,
      "å»ºãģ¦": 4870,
      "OL": 4871,
      "åĬª": 4872,
      "è»įãģ¯": 4873,
      "ãĤģãĤīãĤĮãģŁ": 4874,
      "çĽĹ": 4875,
      "äººãģ§": 4876,
      "07": 4877,
      "ãģŁãģ¨": 4878,
      "çĤ¹ãĤĴ": 4879,
      "åŁĭ": 4880,
      "ly": 4881,
      "æİĽãģĳ": 4882,
      "ãģĭãģĹ": 4883,
      "åĽ³æĽ¸": 4884,
      "åģ´ãģ«": 4885,
      "ãģªãģĭãģªãģĭ": 4886,
      "ãĥĭãĤ³": 4887,
      "ãĤªãĥªãĥ³ãĥĶãĥĥãĤ¯": 4888,
      "ãĤ¿ãĥ¼ãĥ³": 4889,
      "ãĤĪãĤįãģĹãģıãģĬé¡ĺãģĦ": 4890,
      "ãģ®ç®": 4891,
      "ä»£ãĤıãĤĬ": 4892,
      "ãģ®æº": 4893,
      "ãģĦãĤĴ": 4894,
      "ãģ§ãĤĤãģĤãĤĭ": 4895,
      "ãĥ³ãĤ²": 4896,
      "å¹²": 4897,
      "ast": 4898,
      "æıĲæ¡Ī": 4899,
      "åįĥèĳī": 4900,
      "å¤§èĩ£": 4901,
      "ãģ®ç¥ŀ": 4902,
      "å¤ķ": 4903,
      "æ¥½ãģĹãģĦ": 4904,
      "åģľæŃ¢": 4905,
      "UN": 4906,
      "ãĤ¬ãĤ¹": 4907,
      "ãĤ«ãĥĥãĥĪ": 4908,
      "ãĤĤãģ®ãģ¯": 4909,
      "ãģ®è³ĩ": 4910,
      "ãģ§ãģĤãĤĭãģ¨": 4911,
      "ä½¿ãģĪãĤĭ": 4912,
      "ãĤ¯ãĥ©ãĤ¦ãĥī": 4913,
      "ç´łæķµ": 4914,
      "ãĤ²ãĤ¹ãĥĪ": 4915,
      "æ¬¡ä¸ĸçķĮå¤§æĪ¦": 4916,
      "ãĥķãĤ©ãĥ³": 4917,
      "end": 4918,
      "ãĥ¯ãĥ¼": 4919,
      "é£Łåĵģ": 4920,
      "çľ¼": 4921,
      "åĶ¯ä¸Ģ": 4922,
      "æīĭãģ«": 4923,
      "ãĥ©ãĥªãĤ¢": 4924,
      "åŃ«": 4925,
      "ãģĶãģ¨ãģ«": 4926,
      "åĬ¹çİĩ": 4927,
      "èªł": 4928,
      "åı¯æĦĽ": 4929,
      "ãĤ¢ãĥ³ãĥī": 4930,
      "ãģķãģĮ": 4931,
      "sit": 4932,
      "ãĤĴæĢ": 4933,
      "èĢħãĤĴ": 4934,
      "åı°æ¹¾": 4935,
      "ç³ĸ": 4936,
      "ãģķãģĽãģ¦ãģĦãģŁãģłãģįãģ¾ãģĻ": 4937,
      "ge": 4938,
      "ãĤĴæĲ": 4939,
      "æ»ŀ": 4940,
      "è¡ĮãĤıãĤĮãģŁ": 4941,
      "ãĤŃãĥ£ãĥ³ãĥļ": 4942,
      "ãģ®å¿ĥ": 4943,
      "ãĥĴãĥĥãĥĪ": 4944,
      "ãģ®æĬķ": 4945,
      "ãģ®éĸĭçĻº": 4946,
      "å®Łçı¾": 4947,
      "ãĥ¯ãĤ¤ãĥĪ": 4948,
      "ãĤ·ãĥ³ãĥĹãĥ«": 4949,
      "æ¸ī": 4950,
      "ç®±": 4951,
      "ä¸įè¶³": 4952,
      "éı¡": 4953,
      "åįļå£«": 4954,
      "æĹ¥æľ¬ãģ§ãģ¯": 4955,
      "ãĤ«ãĥķãĤ§": 4956,
      "ãģ®å®ļ": 4957,
      "æĸ¹ãģ«": 4958,
      "ä¸ĬãģĮãĤĬ": 4959,
      "09": 4960,
      "ãģ«ä¼´ãģĦ": 4961,
      "å®Łè¡Į": 4962,
      "ç¦ģæŃ¢": 4963,
      "éĤ£": 4964,
      "06": 4965,
      "è¢«å®³": 4966,
      "äºĪæĥ³": 4967,
      "47": 4968,
      "ãĥ¬ãĤ¯ãĥĪ": 4969,
      "å°ĳå¹´": 4970,
      "ãĥ¼ãĥ«ãĤº": 4971,
      "ress": 4972,
      "éĽ·": 4973,
      "ãģ«ä»»": 4974,
      "éĩįãģŃ": 4975,
      "ãĤ¢ãĤ«": 4976,
      "æĹ¥æľ¬äºº": 4977,
      "ãģ®æŃ£": 4978,
      "ãĥ¡ãĥ¢": 4979,
      "ãģ®èī¯": 4980,
      "ä»ĬæĹ¥ãģ¯": 4981,
      "WE": 4982,
      "ãĤĴèµ·ãģĵ": 4983,
      "zon": 4984,
      "1970": 4985,
      "ãĤĴéĸĭåĤ¬": 4986,
      "ãĥ¼ãĥ¯": 4987,
      "å°ıãģķãģª": 4988,
      "ant": 4989,
      "åĽ½ç«ĭ": 4990,
      "ä¸ĺ": 4991,
      "ãĤ¤ãĥ©ãĤ¹ãĥĪ": 4992,
      "ãģ®åħĥ": 4993,
      "ãĤ¦ãĤ¤ãĥ«": 4994,
      "ãģĻãĤĭãģĵãģ¨ãģĮãģ§ãģįãĤĭ": 4995,
      "...ãĢĤ": 4996,
      "ãģ®åĲįåīį": 4997,
      "æ¢ħ": 4998,
      "ãĥĿãĥª": 4999,
      "éģ©çĶ¨": 5000,
      "ãĤıãĤĮãģ¦": 5001,
      "ãĤ¦ãĤ§ãĥĸãĤµãĤ¤ãĥĪ": 5002,
      "éĢ£æĲº": 5003,
      "åĲĮæ§ĺ": 5004,
      "è¡¨è¨ĺ": 5005,
      "ãĥĸãĥŃãĥĥãĤ¯": 5006,
      "ãģ®æ¬": 5007,
      "éĽĩ": 5008,
      "ãĤµãĥ©": 5009,
      "ãģ®æĺłçĶ»": 5010,
      "è¼¸éĢģ": 5011,
      "ãĤĴåĬł": 5012,
      "æľīãģĻãĤĭ": 5013,
      "ãĤªãĥķ": 5014,
      "ãģ®èĤ": 5015,
      "ãĤĴç¢ºèªį": 5016,
      "ãĥŀãĤ¬": 5017,
      "ãģĹãģ¾ãģĦ": 5018,
      "ãģĵãĤĵãģ«ãģ¡ãģ¯": 5019,
      "ç¥ŀæĪ¸": 5020,
      "AK": 5021,
      "ãģĹãĤĩãģĨãģĭ": 5022,
      "âĪ": 5023,
      "ãģ§ãģĤãĤĮãģ°": 5024,
      "ãģ»ãģĹãģĦ": 5025,
      "ãĤĴåĨį": 5026,
      "åĲĦç¨®": 5027,
      "åĲĳä¸Ĭ": 5028,
      "rom": 5029,
      "ost": 5030,
      "æĵįä½ľ": 5031,
      "å®īå®ļ": 5032,
      "ãĤĦãģ¯ãĤĬ": 5033,
      "1000": 5034,
      "ç¿¼": 5035,
      "ãĤ³ãĥ³ãĥĪ": 5036,
      "ãĥĳãĤ¤": 5037,
      "ç¸¦": 5038,
      "çµ¶å¯¾": 5039,
      "ãĤ»ãĥ³ãĥĪ": 5040,
      "è¦ģæ±Ĥ": 5041,
      "ãģĵãģĨãģĹãģŁ": 5042,
      "1998": 5043,
      "èĦĤ": 5044,
      "ãģ®æ³ķ": 5045,
      "ãģĭãģ£ãģ¦": 5046,
      "INE": 5047,
      "ãĤĦãģĭãģª": 5048,
      "æľĢå¾Įãģ«": 5049,
      "æ³ķå¾ĭ": 5050,
      "ãĤ¢ãĥķãĥªãĤ«": 5051,
      "å¾ģ": 5052,
      "è©²": 5053,
      "æĪĳãĢħ": 5054,
      "ãĥĪãĥ©ãĥĥãĤ¯": 5055,
      "å¹´çĶŁ": 5056,
      "ãģ«å¤ī": 5057,
      "èªī": 5058,
      "ãģ®çĪ": 5059,
      "ä¼ļè©±": 5060,
      "éĳĳ": 5061,
      "æİĴ": 5062,
      "ĉĉĉĉ": 5063,
      "ãĤ³ãĥŀ": 5064,
      "è²«": 5065,
      "ãģªãĤĵãģł": 5066,
      "ãĤĴæ§ĭ": 5067,
      "ãĥ«ãģ®": 5068,
      "éļı": 5069,
      "çĽ®ãģ«": 5070,
      "ãģĿãĤĮãģ«": 5071,
      "ãģĮéĸĭ": 5072,
      "ãĤ³ãĥ¼ãĥ«": 5073,
      "çĶŁçī©": 5074,
      "è¶£": 5075,
      "æĺĶ": 5076,
      "ãģĵãģĵãģ§": 5077,
      "çŁ¥ãĤīãĤĮãĤĭ": 5078,
      "æĪ¦çķ¥": 5079,
      "é¡§å®¢": 5080,
      "ãĥĦãĤ¢ãĥ¼": 5081,
      "çļĨãģķãĤĵ": 5082,
      "ãģ®çŁ¥": 5083,
      "ãģĹãģ¦ãģĦãģįãģ¾ãģĻ": 5084,
      "ãĥ¬ãĥĥãĤ¹": 5085,
      "Ġãģ§": 5086,
      "çĭĻ": 5087,
      "å¾®": 5088,
      "çĻ»åł´ãģĻãĤĭ": 5089,
      "ãģ§ãģĻãĤĪãģŃ": 5090,
      "ãĤ·ãĥ«": 5091,
      "ãģĦãĤįãģĦãĤį": 5092,
      "âĻ¡": 5093,
      "æĹĹ": 5094,
      "è³ĩæł¼": 5095,
      "ãģ®å®ī": 5096,
      "ãģ®æĽ²": 5097,
      "ãĤ¯ãĥ¬ãĤ¸ãĥĥãĥĪ": 5098,
      "ass": 5099,
      "ãģĹãģŁãģŁãĤģ": 5100,
      "è¦ĭãģŁ": 5101,
      "èĤ²ãģ¦": 5102,
      "ãģ¡ãģªãģ¿ãģ«": 5103,
      "up": 5104,
      "Ġ&": 5105,
      "çİĭåº§": 5106,
      "ãĤĴè§£": 5107,
      "ãĤĤãģªãģı": 5108,
      "è¬Ľå¸«": 5109,
      "è¾¼ãĤĵãģł": 5110,
      "ãģ®éļĽ": 5111,
      "æİ¡": 5112,
      "ç´ħ": 5113,
      "éłĺåŁŁ": 5114,
      "è»įäºĭ": 5115,
      "ãģ«è»¢": 5116,
      "ä¹Ł": 5117,
      "ãĤĦãģĻãģı": 5118,
      "ãĤĴæ¤ľ": 5119,
      "çĶŁå¾Ĵ": 5120,
      "ãĤªãĥ«": 5121,
      "DVD": 5122,
      "ãĥ³ãĥĻ": 5123,
      "ãĤĴä½ľæĪĲ": 5124,
      "ãģ¨ãģªãģ£ãģ¦": 5125,
      "ãģ®åĪ©çĶ¨": 5126,
      "ãĤĴåħ¥": 5127,
      "èĢ³": 5128,
      "ãģ©ãĤĮ": 5129,
      "ãĥ¼ãĥĨãĤ£ãĥ³ãĤ°": 5130,
      "ãģ«åĲĪ": 5131,
      "èº«ä½ĵ": 5132,
      "æµħ": 5133,
      "ff": 5134,
      "ä½ķåº¦": 5135,
      "å¼ĺ": 5136,
      "ãĤĤãģĹãģıãģ¯": 5137,
      "ãģĤãĤĬãģĮãģ¨ãģĨãģĶãģĸãģĦãģ¾ãģĹãģŁ": 5138,
      "éĥµ": 5139,
      "ãģĮãģ¤": 5140,
      "ãĥ³ãĤ·ãĥ§ãĥ³": 5141,
      "ãĥªãĤ¹ãĤ¯": 5142,
      "è¨ªåķı": 5143,
      "ãģ®åĲĦ": 5144,
      "åĲįç§°": 5145,
      "ãģ«å¤īæĽ´": 5146,
      "è´Ī": 5147,
      "è¼©": 5148,
      "ãģ®å½¹": 5149,
      "æ¬²ãģĹãģĦ": 5150,
      "æĹ¢ãģ«": 5151,
      "ãĥĥãĥĶãĥ³ãĤ°": 5152,
      "è±Ĭå¯Į": 5153,
      "éĿ©åĳ½": 5154,
      "è¦ıå®ļ": 5155,
      "ãĥĽãĥ¯ãĤ¤ãĥĪ": 5156,
      "ï¸": 5157,
      "ãģĵãĤĮãģĭãĤī": 5158,
      "ãĤĴå®Łçı¾": 5159,
      "ãĤ½ãĥ¼ãĤ¹": 5160,
      "æ¸©æ³ī": 5161,
      "ãģĶç´¹ä»ĭ": 5162,
      "ãĥĢãĥ³ãĤ¹": 5163,
      "187": 5164,
      "ãĥ¼ãĥ¢": 5165,
      "å¹³åĿĩ": 5166,
      "400": 5167,
      "æ°ıãģ¯": 5168,
      "äººåı£": 5169,
      "å®¶ãģ®": 5170,
      "æ°Ĺãģ«ãģªãĤĭ": 5171,
      "ä¸»åĤ¬": 5172,
      "OT": 5173,
      "ãģ®èĦ": 5174,
      "è¡Įãģį": 5175,
      "ãģ®è«": 5176,
      "ith": 5177,
      "åĳ¼ãģ³": 5178,
      "è»Į": 5179,
      "ãĤ¹ãĥŃ": 5180,
      "æ¬¡ãģ®": 5181,
      "ä½ľçĶ¨": 5182,
      "ãĤĤãģ®ãģ§ãģĻ": 5183,
      "ãĥĵãĥ¥": 5184,
      "èħķ": 5185,
      "ãģĭãĤĮãĤĭ": 5186,
      "å¥ĩ": 5187,
      "åľ°ä¸ĭ": 5188,
      "ãĤ¨ãĥª": 5189,
      "ãģ«ç½®": 5190,
      "æĪĲç«ĭ": 5191,
      "42": 5192,
      "è¦§ãģıãģłãģķãģĦ": 5193,
      "å§ĭãĤģ": 5194,
      "ãģ¨ãģĬ": 5195,
      "ãģĭãĤĮãģ¦ãģĦãĤĭ": 5196,
      "æķ°ãģĮ": 5197,
      "å¤§äºº": 5198,
      "ä¿³åĦª": 5199,
      "åŁºæºĸ": 5200,
      "ãģĵãģª": 5201,
      "èĦĪ": 5202,
      "ry": 5203,
      "æĿī": 5204,
      "ãĥ¬ãĥĵãĥ¥ãĥ¼": 5205,
      "çŁ¢": 5206,
      "ãĤŃãĥ³ãĤ°": 5207,
      "æķĻå®¤": 5208,
      "çµĲå±Ģ": 5209,
      "OD": 5210,
      "ãĥĩãĤ¤": 5211,
      "çĻºéĽ»": 5212,
      "ãģĻãĤĭãģĵãģ¨ãĤĤ": 5213,
      "ãģĤãģĴ": 5214,
      "ãĤ¸ãĥ¥ãĥ¼ãĥ«": 5215,
      "ãģĽãģŁ": 5216,
      "ãĥ³ãĥĢãĥ¼": 5217,
      "æ©Łæ¢°": 5218,
      "æĹ¥å¸¸": 5219,
      "ãģĮåı¯èĥ½": 5220,
      "pl": 5221,
      "æ¨Ļæºĸ": 5222,
      "è¨ŃåĤĻ": 5223,
      "ä½įãģ«": 5224,
      "ãģ®æīĢ": 5225,
      "ç§ģãģĮ": 5226,
      "ãģ®æ·": 5227,
      "ev": 5228,
      "ãĤŃãĥ£ãĥ³ãĥļãĥ¼ãĥ³": 5229,
      "ãĤĴå®Ī": 5230,
      "ç¨¼": 5231,
      "æ°Ĺãģ«": 5232,
      "ãĥīãĤ¢": 5233,
      "å¿ľæı´": 5234,
      "Ġon": 5235,
      "ãĤĴãģĭ": 5236,
      "kg": 5237,
      "åħ¨åĵ¡": 5238,
      "åĩºãģķãĤĮãģŁ": 5239,
      "ãģ«åĩºæ¼Ķ": 5240,
      "ãĤ¬ãĤ¤ãĥī": 5241,
      "çµĤãĤıãĤĬ": 5242,
      "ãĤĴä½¿ãģ£ãģŁ": 5243,
      "éĻ¥": 5244,
      "è©©": 5245,
      "****": 5246,
      "è£ħåĤĻ": 5247,
      "åĵ²": 5248,
      "å¤§ãģįãģĦ": 5249,
      "åıĹä»ĺ": 5250,
      "ãĤ¤ãĥ³ãĥĩãĤ£": 5251,
      "åĲĦåľ°": 5252,
      "ľ°": 5253,
      "åħ±åĴĮåĽ½": 5254,
      "æīį": 5255,
      "ok": 5256,
      "ãģ«æĶ¹": 5257,
      "ãĤīãģĨ": 5258,
      "éĢļçŁ¥": 5259,
      "æĺ¼": 5260,
      "ãģ®ç§»": 5261,
      "NHK": 5262,
      "å®Łé¨ĵ": 5263,
      "ĠX": 5264,
      "ãģ«ãģĭãģĳãģ¦": 5265,
      "åŁ¹": 5266,
      "éĽĨåĽ£": 5267,
      "ãģ®ç©º": 5268,
      "ãģ¾ãģĽãĤĵãģĭ": 5269,
      "ãģĤãģŁãĤĬ": 5270,
      "éĺ²è¡Ľ": 5271,
      "æĦıè¦ĭ": 5272,
      "BA": 5273,
      "äºľ": 5274,
      "äºĨæī¿": 5275,
      "æ¬¡ç¬¬": 5276,
      "æľŁãģ«": 5277,
      "1997": 5278,
      "ãģ®æ©Łèĥ½": 5279,
      "ãĢĴ": 5280,
      "iz": 5281,
      "ãĤ¨ãĥ³ãĤ¸ãĥ³": 5282,
      "ãģĻãĤĭåł´åĲĪ": 5283,
      "ãģ®æĻĤä»£": 5284,
      "å½ĵãģ¦": 5285,
      "ire": 5286,
      "ãģ£ãģ½": 5287,
      "æ½Ł": 5288,
      "ãģ«ä¹Ĺ": 5289,
      "ãĤĴæĬ¼": 5290,
      "çŀ¬": 5291,
      "ãĤĬãĤĴ": 5292,
      "åĭ¤åĭĻ": 5293,
      "ãģĬåºĹ": 5294,
      "ãģªãģ©ãģ¯": 5295,
      "her": 5296,
      "éĥ¨ãģ¯": 5297,
      "ãĤ«ãĥĬãĥĢ": 5298,
      "ä¸»æ¼Ķ": 5299,
      "ä¿®æŃ£": 5300,
      "ãĥĨãĥ³": 5301,
      "64": 5302,
      "çľĭ": 5303,
      "è¬Ľåº§": 5304,
      "çĸ²": 5305,
      "ãĤ¹ãĥ©": 5306,
      "éģĬãģ³": 5307,
      "æľĢåĪĿãģ®": 5308,
      "ä¸ĬãģĴãĤĭ": 5309,
      "æľ¬æł¼": 5310,
      "å®£è¨Ģ": 5311,
      "å½ĵæĻĤãģ®": 5312,
      "å·ĿçľĮ": 5313,
      "æ¯Ĵ": 5314,
      "æĸ°è¦ı": 5315,
      "ãģ®å¦": 5316,
      "è¦Ĩ": 5317,
      "OC": 5318,
      "æĨ¶": 5319,
      "ç¯ĦåĽ²": 5320,
      "åĭķãģį": 5321,
      "éİĸ": 5322,
      "Ġãģ«": 5323,
      "ãĥĹãĥ©ãĤ¹": 5324,
      "å¤ªéĻ½": 5325,
      "å¦¹": 5326,
      "ãĥĪãĥ³": 5327,
      "ãģ®æĻĤéĸĵ": 5328,
      "åĥįãģį": 5329,
      "ãģ®åĦ": 5330,
      "æĢ§èĥ½": 5331,
      "æīĢãģ«": 5332,
      "æ¥ŃèĢħ": 5333,
      "ãģ®ãģŁãĤģãģ®": 5334,
      "ãģªãģĳãĤĮãģ°ãģªãĤīãģªãģĦ": 5335,
      "ãĤĴåıİ": 5336,
      "out": 5337,
      "ãĥ¼ãĤ¨": 5338,
      "æĳ©": 5339,
      "ãģ®ãģ§ãģĤãĤĭ": 5340,
      "ãģĮé«ĺãģĦ": 5341,
      "ãĤ«ãĥ©ãĥ¼": 5342,
      "äºĭãģ«": 5343,
      "ãĤ·ãĤ§ãĤ¢": 5344,
      "ãģķãģĽãģ¦éłĤ": 5345,
      "ãĤĴä½ľãĤĬ": 5346,
      "ãĤĴãĤĤãģ£ãģ¦": 5347,
      "ãģ¾ãģı": 5348,
      "éĻ°": 5349,
      "åħĥå¹´": 5350,
      "ãģĹãģ¾ãģĦãģ¾ãģĻ": 5351,
      "åĲĳãģį": 5352,
      "ãĤĦãĤĭ": 5353,
      "ç½²": 5354,
      "ãĤĴæº": 5355,
      "è³ĥ": 5356,
      "ãģĭãģ©ãģĨãģĭ": 5357,
      "ãĤĴéĢļãģĹãģ¦": 5358,
      "æ¶¯": 5359,
      "qu": 5360,
      "ãĤ¶ãĥ¼": 5361,
      "ãģ®åºĥ": 5362,
      "æĦŁè¬Ŀ": 5363,
      "èĳ¬": 5364,
      "ment": 5365,
      "éģ©åĪĩ": 5366,
      "«éľ²": 5367,
      "´æĸ°": 5368,
      "apan": 5369,
      "è¦ĩ": 5370,
      "éģĤ": 5371,
      "ä¼ı": 5372,
      "ç©įæ¥µ": 5373,
      "çĦ¼ãģį": 5374,
      "åĲįãģ®": 5375,
      "ãĥĬãĥł": 5376,
      "åıĪ": 5377,
      "å°Ĩè»į": 5378,
      "æľ¬æĿ¥": 5379,
      "ãĥĩãĤ¶ãĤ¤": 5380,
      "ãĥ¦ãĥĢ": 5381,
      "ãģ®ç¢": 5382,
      "åĪ¶å¾¡": 5383,
      "ä»¥ä¸Ĭãģ®": 5384,
      "å¹´ãĤĪãĤĬ": 5385,
      "ãĢĤãĥ»": 5386,
      "ube": 5387,
      "å¼·åĮĸ": 5388,
      "ãĤĤãģ®ãģ§": 5389,
      "åħ·ä½ĵ": 5390,
      "éĸ¢æĿ±": 5391,
      "ãģ®è¶": 5392,
      "ãĤĵãģ¨": 5393,
      "ãģ®ç«ĭ": 5394,
      "ç©´": 5395,
      "ãĤ»ãĥ³ãĤ¹": 5396,
      "ãģ®å±±": 5397,
      "ãģ®èĳĹ": 5398,
      "App": 5399,
      "æ·»": 5400,
      "ãĤıãģĭãĤĬ": 5401,
      "æĸ°ãģŁãģ«": 5402,
      "1996": 5403,
      "é£²ãģ¿": 5404,
      "åı¸ä»¤": 5405,
      "ãĤĬãģ¨": 5406,
      "ä¸»äººåħ¬": 5407,
      "ãĤĴéģ¸æĬŀ": 5408,
      "ãĤªãĥ¼ãĤ¹ãĥĪãĥ©ãĥªãĤ¢": 5409,
      "éĩĳé¡į": 5410,
      "ãģĭãĤĤãģĹãĤĮãģªãģĦ": 5411,
      "pe": 5412,
      "ãĥ¼ãĤ«ãĥ«": 5413,
      "æī¹åĪ¤": 5414,
      "ä¿Ŀè¨¼": 5415,
      "ãģ®ä¸Ńå¿ĥ": 5416,
      "åĦŁ": 5417,
      "ãĥ¬ãĥĥãĥī": 5418,
      "éĢŁåº¦": 5419,
      "ãģĭãģı": 5420,
      "ãģ®çĬ¶æħĭ": 5421,
      "ãĤªãĥ¼ãĥ«": 5422,
      "ä»¥éĻįãģ¯": 5423,
      "ãģĿãģĨãģª": 5424,
      "å¯§": 5425,
      "ãĥĨãĤ´": 5426,
      "ç²ī": 5427,
      "04": 5428,
      "ãģ¹ãĤĭ": 5429,
      "çĽ¸å½ĵ": 5430,
      "ãģ®è¾": 5431,
      "1995": 5432,
      "ä¼ĳãģ¿": 5433,
      "å¹´é½¢": 5434,
      "ãĤĴæĶ¾": 5435,
      "ãģ®æĦıåĳ³": 5436,
      "å¤§åŃ¦éĻ¢": 5437,
      "ĺåľ¨": 5438,
      "ãģĹãģ¦ãģĹãģ¾ãģĨ": 5439,
      "ãĥ¢ãĥ¼ãĥī": 5440,
      "èĥĮæĻ¯": 5441,
      "èĢħãģ¨ãģĹãģ¦": 5442,
      "'s": 5443,
      "çµĦãģ¿åĲĪãĤıãģĽ": 5444,
      "æĭĽ": 5445,
      "æıĥ": 5446,
      "éĸ¢è¥¿": 5447,
      "æŃ£å¼ı": 5448,
      "ãĥĪãĥ¬ãĥ¼ãĥĭãĥ³ãĤ°": 5449,
      "è·µ": 5450,
      "ç¾İãģĹãģĦ": 5451,
      "58": 5452,
      "å§ĭãĤģãģŁ": 5453,
      "ãĤ³ãĤ¹ãĥĪ": 5454,
      "åīĬéĻ¤": 5455,
      "çŁ¥ãĤĬ": 5456,
      "ãģĦãģĮ": 5457,
      "ãģ¨ãģĦãģĨãģ®ãģ¯": 5458,
      "æĸ°åŀĭ": 5459,
      "ä¸įåĭķçĶ£": 5460,
      "è²»çĶ¨": 5461,
      "åĳĤ": 5462,
      "æĻĤéĸĵãĤĴ": 5463,
      "æĻ®æ®µ": 5464,
      "ç¶²": 5465,
      "é³´": 5466,
      "åĲįãĤĴ": 5467,
      "ãĤ³ãĥ¼ãĥģ": 5468,
      "ãģĮè¡ĮãĤıãĤĮ": 5469,
      "äºĭãĤĴ": 5470,
      "æı¡": 5471,
      "çĲĨåŃ¦": 5472,
      "ãģªãģıãģ¦ãĤĤ": 5473,
      "æ®Ĭ": 5474,
      "éī±": 5475,
      "ell": 5476,
      "ãĥ«ãĥ¼ãĥ«": 5477,
      "åª": 5478,
      "int": 5479,
      "åĳ¼ãģ°": 5480,
      "ãĥĲãĥ©ãĥ³ãĤ¹": 5481,
      "è³ĩéĩĳ": 5482,
      "æĻĤä»£ãģ«": 5483,
      "æ£Ħ": 5484,
      "ãģĦãĤĦ": 5485,
      "æĻĤãģ®": 5486,
      "ãģĮè¡ĮãĤıãĤĮãģŁ": 5487,
      "ãģ®ãĤĴ": 5488,
      "ãĤ³ãĥ¼ãĥĩãĤ£": 5489,
      "ãĤĤãĤĬ": 5490,
      "åĩºãģ¦": 5491,
      "å°Ĭ": 5492,
      "é£Ľãģ³": 5493,
      "ãģ®æŃĮ": 5494,
      "ç¢ºä¿Ŀ": 5495,
      "ãģ®è¥": 5496,
      "ãĤħãģĨ": 5497,
      "ãģ¹ãģı": 5498,
      "é£¼": 5499,
      "æĻº": 5500,
      "éĽ»è»Ĭ": 5501,
      "ne": 5502,
      "å¦Ļ": 5503,
      "ãĤĴè¦ĭãĤĭ": 5504,
      "ãĥŀãĥª": 5505,
      "ãģ®ãĤ·": 5506,
      "ãģ®çĭ": 5507,
      "è¨Ńãģĳ": 5508,
      "ãģ®èī²": 5509,
      "ãģĮãĤĵ": 5510,
      "ãĤĪãģĨãģ«ãģªãĤĬ": 5511,
      "02": 5512,
      "ãĥĶãĥ¼": 5513,
      "æķ¬": 5514,
      "çµ±ä¸Ģ": 5515,
      "æ®µéļİ": 5516,
      "å¨ģ": 5517,
      "ãĥ¡ãĥ³ãĥĲ": 5518,
      "çı¾åľ°": 5519,
      "ãĤĤãģ®ãĤĴ": 5520,
      "åĨĬ": 5521,
      "¶Ī": 5522,
      "ãĤ³ãĥ¼ãĥĴ": 5523,
      "ç«ľ": 5524,
      "çł´å£Ĭ": 5525,
      "ãģ®ä»ĸ": 5526,
      "çĻºè¡¨ãģķãĤĮãģŁ": 5527,
      "åıįå¿ľ": 5528,
      "å¯Įå£«": 5529,
      "io": 5530,
      "ãĤ·ãĥ§ãĥĬãĥ«": 5531,
      "èĺ": 5532,
      "»è¨³": 5533,
      "èªĩ": 5534,
      "ãĤ¦ãĤ¤ãĥ«ãĤ¹": 5535,
      "ãĤŃãĥŃ": 5536,
      "ãģ£ãģ¦ãģĬ": 5537,
      "æ¤ľè¨İ": 5538,
      "ãĥįãĤ¿": 5539,
      "ãĤĴæĦıåĳ³": 5540,
      "ãģ¨è¿°ãģ¹": 5541,
      "Ch": 5542,
      "ED": 5543,
      "å®Łãģ«": 5544,
      "ãģ£ãģ±ãĤĬ": 5545,
      "æİĺ": 5546,
      "åıĹè³ŀ": 5547,
      "ãģ®æĽ¸": 5548,
      "åįµ": 5549,
      "åŃĲãģ®": 5550,
      "ãģ¨è¦ĭ": 5551,
      "ãģ«ãĤĪãģ£ãģ¦ãģ¯": 5552,
      "ãĤĴæ·": 5553,
      "è¾¼ãĤĵãģ§": 5554,
      "èī¦éļĬ": 5555,
      "ãĤ¢ãĥ¼ãĥĨãĤ£ãĤ¹ãĥĪ": 5556,
      "è¨ĵç·´": 5557,
      "ãģ«å¸°": 5558,
      "ãģ®å¨": 5559,
      "âĶĢâĶĢ": 5560,
      "ãĥĽãĥ«": 5561,
      "å¾ĹçĤ¹": 5562,
      "ãģ®åįĹ": 5563,
      "éĩİèıľ": 5564,
      "ãĤĴæĪ": 5565,
      "è¨¼æĺİ": 5566,
      "ãĥ³ãĥģãĥ£": 5567,
      "ãģķãģ¦": 5568,
      "ãĥıãĥ³ãĥī": 5569,
      "ãģıãģªãģ£ãģŁ": 5570,
      "ãĤ¨ãĤ¯": 5571,
      "ãĤĴæĬ±": 5572,
      "ãģ®çī¹": 5573,
      "ãĤĴæĬķ": 5574,
      "ãĤĴæŀľãģŁãģĹãģŁ": 5575,
      "ãĤĴä½ľãĤĭ": 5576,
      "ãĥĲãĥĥãĤ°": 5577,
      "æ¾¤": 5578,
      "éĢģãĤĬ": 5579,
      "ãģĪãĤīãĤĮãģŁ": 5580,
      "æĽ´ãģ«": 5581,
      "éĿ¢ãģ«": 5582,
      "æ±ļ": 5583,
      "iv": 5584,
      "å§ī": 5585,
      "ãĤ¬ãĥ«": 5586,
      "åĦªç§Ģ": 5587,
      "çİĭåĽ½": 5588,
      "å°ĨæĿ¥": 5589,
      "AG": 5590,
      "IG": 5591,
      "åĸ«": 5592,
      "ç£¨": 5593,
      "ãĥīãĤ¥": 5594,
      "ãģŁãģ³": 5595,
      "å¤§åŀĭ": 5596,
      "ãĥĺãĥĥãĥī": 5597,
      "ä¸ĬãģĴãģŁ": 5598,
      "ãĤĴè¡Įãģ£ãģ¦ãģĦãĤĭ": 5599,
      "åĦĦåĨĨ": 5600,
      "æĹ¥ãģ¾ãģ§": 5601,
      "ãĤ°ãĥªãĥ¼": 5602,
      "å¤ªå¹³": 5603,
      "ãĤīãģĮ": 5604,
      "æºĢè¶³": 5605,
      "çį£": 5606,
      "å¬īãģĹãģĦ": 5607,
      "æ²¼": 5608,
      "åĮĸåŃ¦": 5609,
      "49": 5610,
      "åħ±æľī": 5611,
      "åħ±éĢļ": 5612,
      "ä¸»è¦ģ": 5613,
      "ãĥ¦ãĥĢãĥ¤": 5614,
      "ãĥ³ãĥĪãĥ³": 5615,
      "ãĥ¼ãĤª": 5616,
      "å®Įåħ¨ãģ«": 5617,
      "åĵģè³ª": 5618,
      "æĹ¥æľ¬ãģ§": 5619,
      "ãģĵãģ¨ãģ«ãģªãĤĭ": 5620,
      "çµĤãĤıãģ£ãģŁ": 5621,
      "ãģ®æĶ¾": 5622,
      "å®ļç¾©": 5623,
      "åĨł": 5624,
      "ãģ®ãĥĹãĥŃ": 5625,
      "ãĥĶãĤ¢ãĥİ": 5626,
      "ãĥķãĤ£ãĥª": 5627,
      "çµĦåĲĪ": 5628,
      "ãĥĩãĥ¼ãĥĪ": 5629,
      "éłĥãģĭãĤī": 5630,
      "æ²Ī": 5631,
      "åĽ°éĽ£": 5632,
      "æĮĩæı®": 5633,
      "ãģ®ãĥľ": 5634,
      "æĸĩæĽ¸": 5635,
      "ãĤµãĥĥãĤ«ãĥ¼": 5636,
      "59": 5637,
      "ãĤ¨ãĥ³ãĤ¿": 5638,
      "ãģ®å¹³": 5639,
      "çĽ®ãĤĴ": 5640,
      "éĺ²æŃ¢": 5641,
      "å±¥": 5642,
      "41": 5643,
      "ãģ®çĲĨçĶ±": 5644,
      "ãģĿãģĨãģĦãģĨ": 5645,
      "ãģ®è¿ĳ": 5646,
      "ç´łæĻ´ãĤīãģĹãģĦ": 5647,
      "éĩ£ãĤĬ": 5648,
      "ãģ¦ãģĦãģ¾ãģĹãģŁ": 5649,
      "è¨ĺæĨ¶": 5650,
      "ãĤ¢ãĥ¬": 5651,
      "43": 5652,
      "èĤ©": 5653,
      "å¯Ľ": 5654,
      "è¨ĢãģĦ": 5655,
      "800": 5656,
      "ãĤĴè²·": 5657,
      "æĲºå¸¯": 5658,
      "ãģĻãĤĭãģ®ãģ¯": 5659,
      "ãĥĥãĤ¿": 5660,
      "ä»¥å¾Į": 5661,
      "ãģĭãģĻ": 5662,
      "ãģ®å°Ĥ": 5663,
      "ãĥŁãĤ¹": 5664,
      "è¨ºæĸŃ": 5665,
      "ãģ¤ãģį": 5666,
      "ãģ®åł": 5667,
      "ãĥĺãĤ¢": 5668,
      "LO": 5669,
      "åľŁåľ°": 5670,
      "sh": 5671,
      "ãĤ¹ãĥĪãĥ¼ãĥªãĥ¼": 5672,
      "éĽĨä¸Ń": 5673,
      "ãģ«éĸ¢ãģĹãģ¦ãģ¯": 5674,
      "èŃ°éĻ¢": 5675,
      "æŀ¶": 5676,
      "ç«¶é¦¬": 5677,
      "ãĥĹãĥ¬ãĤ¤ãĥ¤": 5678,
      "éķ·ãģı": 5679,
      "ãģĹãģŁå¾Į": 5680,
      "ĠPro": 5681,
      "ãģ§ãģįãģªãģĭãģ£ãģŁ": 5682,
      "å°½": 5683,
      "æĹ¨": 5684,
      "å·»ãģį": 5685,
      "ãģĶäºĨæī¿": 5686,
      "åĨįçĶŁ": 5687,
      "ãĤ¢ãĤ«ãĤ¦ãĥ³ãĥĪ": 5688,
      "ãģ®æľĢ": 5689,
      "ãģ®è¦ĭ": 5690,
      "ãģĦãģ¡": 5691,
      "æĭ¬": 5692,
      "ãĤĴæīĵ": 5693,
      "ãģ¨ãģĦãģĨãģĵãģ¨ãģ§": 5694,
      "ãĥķãĤ¡ãĥĥãĤ·ãĥ§ãĥ³": 5695,
      "åĽ³æĽ¸é¤¨": 5696,
      "ãģªãģıãģªãģ£ãģŁ": 5697,
      "æĴ¤": 5698,
      "ãģ¾ãģĹãģ¦": 5699,
      "åĪĨãģ®": 5700,
      "ãģ®ç¶": 5701,
      "æĻĤè¨Ī": 5702,
      "ãĥĸãĥĥãĤ¯": 5703,
      "é¬¼": 5704,
      "çµĲæĪĲ": 5705,
      "æĸ¹ãĤĴ": 5706,
      "ile": 5707,
      "ãĤıãģ£ãģ¦": 5708,
      "ãĤŃãĥªãĤ¹ãĥĪ": 5709,
      "ãģ«åĲĳãģĳãģ¦": 5710,
      "çŃīãģ®": 5711,
      "ãĤ·ãĥĨãĤ£": 5712,
      "ãĥīãĥŃ": 5713,
      "ãģ£ãģ±ãģĦ": 5714,
      "ãĤ¢ãĥŀ": 5715,
      "å°ĳå¥³": 5716,
      "ç·¯": 5717,
      "roid": 5718,
      "HP": 5719,
      "æ¹¿": 5720,
      "ãģĻãĤĭãģ«ãģ¯": 5721,
      "å¥³åĦª": 5722,
      "ãĤªãĤ¹ãĤ¹ãĥ¡": 5723,
      "ãĤ¤ãĤ¨": 5724,
      "ãĥ¼ãĥĻãĥ«": 5725,
      "mazon": 5726,
      "ãĤµãĥ³": 5727,
      "»æĴĥ": 5728,
      "çĭŃ": 5729,
      "çķĻåŃ¦": 5730,
      "Ġ11": 5731,
      "ãģĹãģĭãģ£ãģŁ": 5732,
      "ãģ£ãģ¡": 5733,
      "1960": 5734,
      "åŃ¦åľĴ": 5735,
      "ĠCh": 5736,
      "ç¹ĭãģĮ": 5737,
      "ãģ®åķĨåĵģ": 5738,
      "æŃ³ãģ§": 5739,
      "Ġ=": 5740,
      "ãĤĴèªŃ": 5741,
      "é¦ĸçĽ¸": 5742,
      "ãĥªãĤ¢ãĥł": 5743,
      "å·®ãģĹ": 5744,
      "ãĥıãĥª": 5745,
      "56": 5746,
      "æ·±ãģĦ": 5747,
      "ãģ®å§¿": 5748,
      "ãģķãģĪ": 5749,
      "ust": 5750,
      "ãģ®æ±º": 5751,
      "ä¿®çĲĨ": 5752,
      "ãģĵãĤĮãĤīãģ®": 5753,
      "åł±éģĵ": 5754,
      "çĽ®ãģ¯": 5755,
      "ãģ®ç¢º": 5756,
      "ãĤģãģ¦ãģĦãģŁ": 5757,
      "èıĵ": 5758,
      "ãĥŃãĤ°ãĤ¤ãĥ³": 5759,
      "ãģ®åĬĽ": 5760,
      "ãģ®æĢĿ": 5761,
      "çĻºå£²ãģķãĤĮãģŁ": 5762,
      "ãĤ¨ãĥ³ãĤ¸ãĥĭãĤ¢": 5763,
      "ãĥ³ãĥı": 5764,
      "ãģ®å¸Ĥ": 5765,
      "ä¿º": 5766,
      "èĩªè»¢": 5767,
      "å§«": 5768,
      "ãģ§ãģĻãĤĪ": 5769,
      "ah": 5770,
      "ãĥ¯ãĤ¤ãĥ³": 5771,
      "ãĥĩãĤ£ãĥ³ãĤ°": 5772,
      "ãĤĴåĽ³": 5773,
      "1994": 5774,
      "ãĤĴåįĴæ¥Ń": 5775,
      "åĭĩ": 5776,
      "ãĥ¬ãĤ¯ãĤ·ãĥ§ãĥ³": 5777,
      "ãģ®è¬": 5778,
      "æ¯Ķãģ¹": 5779,
      "ãģ®åŃĺåľ¨": 5780,
      "ãģ§ãģªãģĦ": 5781,
      "ãģĳãĤĮ": 5782,
      "ãģĹãģĭãĤĤ": 5783,
      "ãģķãģ¨": 5784,
      "ĠÌ": 5785,
      "âĢĶâĢĶâĢĶâĢĶ": 5786,
      "ãĤĤè¡Į": 5787,
      "ãģĻãĤĭãģĵãģ¨ãĤĴ": 5788,
      "ãģ®å¹´": 5789,
      "ãĤĴæĺİ": 5790,
      "ãģ®åıĹ": 5791,
      "ãģ¯ãģĤãĤĬãģ¾ãģĽãĤĵ": 5792,
      "çĦ¡æĸĻãģ§": 5793,
      "ãĥĹãĥ¬ãĥ¼": 5794,
      "æ°Ĺãģ¥": 5795,
      "ãĤ³ãĥ³ãĥĶãĥ¥ãĥ¼ãĤ¿": 5796,
      "èĩªåĪĨãģ§": 5797,
      "æĶ¹éĿ©": 5798,
      "æĤªãģĦ": 5799,
      "éĥ¨éķ·": 5800,
      "æ±ºæ¸Ī": 5801,
      "éļĶ": 5802,
      "éİ®": 5803,
      "ãĤ¢ãĤ¤ãĥīãĥ«": 5804,
      "æ¥½æĽ²": 5805,
      "ãĤĴæį": 5806,
      "ä»Ĭãģ¾ãģ§": 5807,
      "åĤ¾åĲĳ": 5808,
      "å¹Į": 5809,
      "ãģĵãģ¨ãģĮå¤ļãģĦ": 5810,
      "ãģķãĤĮãģªãģĦ": 5811,
      "åŃ¦ä¼ļ": 5812,
      "å»ºçī©": 5813,
      "ä½İãģĦ": 5814,
      "å¥ī": 5815,
      "å¥¨": 5816,
      "ãĥĹãĤ·ãĥ§ãĥ³": 5817,
      "ãģĦãģ¦ãģĦãģ¾ãģĻ": 5818,
      "ãĤ¤ãĥ¬": 5819,
      "ãĤĴæ¨": 5820,
      "è¾²æ¥Ń": 5821,
      "ãģªãģ£ãģŁ": 5822,
      "çĲĨäºĭ": 5823,
      "ãĥ¯ãĤ¯": 5824,
      "äºĭä¾ĭ": 5825,
      "ãĥķãĤ©ãĥ¼ãĥŀãĥ³ãĤ¹": 5826,
      "ãģ£ãģ¡ãĤĥ": 5827,
      "ãĥ¼ãĥŀãĥ³": 5828,
      "ãģ®åĽŀ": 5829,
      "ãģ®å¤©": 5830,
      "ãĤŃãĥ¼": 5831,
      "èĬĿ": 5832,
      "ãĤīãģĻ": 5833,
      "ãĤĴæķĻ": 5834,
      "åĬłå·¥": 5835,
      "ãģ®æ¼Ķ": 5836,
      "åį±éĻº": 5837,
      "EL": 5838,
      "ãĥĵãĥĥãĥĪ": 5839,
      "ãĤ¹ãĤŃãĥ«": 5840,
      "ãģĵãģ¨ãģ«ãģªãģ£ãģŁ": 5841,
      "ãģ®ãĥ©": 5842,
      "ãģ®æļ": 5843,
      "æ»ĳ": 5844,
      "ãģĤãĤĮãģ°": 5845,
      "æĮĩæĳĺ": 5846,
      "æŃ»äº¡": 5847,
      "ä½ĵãĤĴ": 5848,
      "ãĤĴæĶ¹": 5849,
      "ãĤīãģĭãģ«": 5850,
      "ãģĤãĤīãĤĨãĤĭ": 5851,
      "æĿ±åĮĹ": 5852,
      "ãĤ³ãĥ³ãĥĵ": 5853,
      "ãĥ¢ãĥĲ": 5854,
      "åıĮ": 5855,
      "åĭķä½ľ": 5856,
      "ç³¸": 5857,
      "ãĤµãĤ¤ãĥī": 5858,
      "å¾Ħ": 5859,
      "å½ĵãĤµãĤ¤ãĥĪ": 5860,
      "åį°åĪ·": 5861,
      "ç·ļãĤĴ": 5862,
      "æľ¬æĹ¥": 5863,
      "åİŁä½ľ": 5864,
      "èŃ·å£«": 5865,
      "æĿ¡ç´Ħ": 5866,
      "æļĳ": 5867,
      "ram": 5868,
      "çĶ³è«ĭ": 5869,
      "Ġst": 5870,
      "ãĤĴç½®": 5871,
      "ä»£çĽ®": 5872,
      "ãģ®æĬĢè¡ĵ": 5873,
      "æ©Łæ§ĭ": 5874,
      "ãģĭãģĨ": 5875,
      "ãģ£ãģįãĤĬ": 5876,
      "ãĢĭ": 5877,
      "ãĤ·ãĥĥãĤ¯": 5878,
      "ãĥįãĤ¤": 5879,
      "ãĥ«ãĥ¼ãĥĪ": 5880,
      "ãĢĤ.": 5881,
      "ãĥ¼ãĥĲãĥ¼": 5882,
      "æĸ°æ½Ł": 5883,
      "éģ¸ãģ³": 5884,
      "ãĤ½ãĥŃ": 5885,
      "ãģĹãģ¦ãģıãĤĮãĤĭ": 5886,
      "ite": 5887,
      "ãģĦãģ¾ãģĽãĤĵ": 5888,
      "emap": 5889,
      "ãĥľãĥĥãĥĪ": 5890,
      "ãĥ¡ãĥªãĥĥãĥĪ": 5891,
      "Ġ12": 5892,
      "æĢĴ": 5893,
      "åłĢ": 5894,
      "ox": 5895,
      "ãģĻãĤĭæĸ¹æ³ķ": 5896,
      "ãģ®ä¸¡": 5897,
      "ãģ®æĢ§": 5898,
      "ãģ®ç®¡": 5899,
      "ç¨İè¾¼": 5900,
      "å½¢æħĭ": 5901,
      "è¾Ľ": 5902,
      "åŃĲãĤĴ": 5903,
      "SP": 5904,
      "æıļ": 5905,
      "ãģ»ãģĨãģĮ": 5906,
      "57": 5907,
      "ãĤĴåįł": 5908,
      "ãĥ¼ãĤ¦": 5909,
      "ov": 5910,
      "ç¥ŀå¥Ī": 5911,
      "æľĪåı·": 5912,
      "åŁ¼": 5913,
      "ML": 5914,
      "ãģ®åĸ": 5915,
      "ãģĶãģ¨": 5916,
      "å¹´æľ«": 5917,
      "çıį": 5918,
      "ãģĹãģªãģĭãģ£ãģŁ": 5919,
      "ãģ§ãģĹãģŁãģĮ": 5920,
      "å¸³": 5921,
      "ãģ®åı¯": 5922,
      "ãģ®çµĲæŀľ": 5923,
      "æµģãĤĮ": 5924,
      "ãģ®åĤ": 5925,
      "sitemap": 5926,
      "æĬ¼ãģĹ": 5927,
      "ä¸ĬãģĴãģ¾ãģĻ": 5928,
      "ãĤ¸ãĥ§ãĥ¼ãĤ¸": 5929,
      "éĸĵãģ§": 5930,
      "ãģ®ä¸į": 5931,
      "ãĥĩãĥĲãĤ¤ãĤ¹": 5932,
      "ãģŁãģ¾": 5933,
      "æľĿæĹ¥": 5934,
      "ãĥ¬ãĥĿãĥ¼ãĥĪ": 5935,
      "ãģ®ç²": 5936,
      "èĩĵ": 5937,
      "ãģĬéĩĳ": 5938,
      "ä»°": 5939,
      "ãģ«ãģªãģ£ãģ¦ãģĦãģ¾ãģĻ": 5940,
      "ãĤĴå§ĭãĤģ": 5941,
      "æ¬§å·ŀ": 5942,
      "çģ¯": 5943,
      "åįĺä½į": 5944,
      "åĨħéĸ£": 5945,
      "ãĥĸãĥ©ãĤ¦ãĤ¶": 5946,
      "ãģ®æĪ¦ãģĦ": 5947,
      "ãĢĬ": 5948,
      "çĶŁæ¶¯": 5949,
      "ãĤ·ãĥ¼ãĥĪ": 5950,
      "å¾ĴæŃ©": 5951,
      "æİĥ": 5952,
      "æĽ¸ç±į": 5953,
      "Re": 5954,
      "è¡Įãģı": 5955,
      "Ġ2019": 5956,
      "ial": 5957,
      "ãĥĳãĥ¼ãĥĨãĤ£": 5958,
      "ãĥĦãĤ¤": 5959,
      "é«ĺãģı": 5960,
      "ãĥĥãĤ¿ãĥ¼": 5961,
      "ãģķãģ¯": 5962,
      "??": 5963,
      "ãģ©ãģĨãģŀ": 5964,
      "æº¶": 5965,
      "ãĥ¬ãĤ³ãĥ¼ãĥī": 5966,
      "ãĤ¹ãĤ¯ãĥ¼ãĥ«": 5967,
      "186": 5968,
      "ä¾Ľçµ¦": 5969,
      "ĠâĢĵ": 5970,
      "ãģĦãģ¾": 5971,
      "åĮ»å¸«": 5972,
      "æļĸ": 5973,
      "ãĤĴæĲŃè¼ī": 5974,
      "éł»": 5975,
      "ãĥĹãĥ©ãĥĥãĥĪ": 5976,
      "ãĤĴä¸ĭ": 5977,
      "æĸ°å®¿": 5978,
      "èĩªè»¢è»Ĭ": 5979,
      "æ±ĤãĤģ": 5980,
      "Ġå¤§": 5981,
      "ãĤ¿ãĤ°": 5982,
      "====": 5983,
      "ãĥŀãĥ©": 5984,
      "å®ĹæķĻ": 5985,
      "è³ŀãĤĴåıĹè³ŀ": 5986,
      "AA": 5987,
      "æľīåĲįãģª": 5988,
      "ç¥ŀçµĮ": 5989,
      "åºı": 5990,
      "å¹¸ãģĽ": 5991,
      "éľĢ": 5992,
      "ãģ®ä»ķäºĭ": 5993,
      "ãģ«ä½įç½®": 5994,
      "äº¤æ¸ī": 5995,
      "ãĥŁãĥ³": 5996,
      "jp": 5997,
      "ebook": 5998,
      "ãģªãĤīãģ°": 5999,
      "ãģ«ãģ¤ãģĦãģ¦ãĤĤ": 6000,
      "ear": 6001,
      "ãģ®çİĭ": 6002,
      "ãģĹãģ¦ãģĦãģŁãģł": 6003,
      "ãģ£ãģĵ": 6004,
      "ãĥĨãĤ¯ãĥİ": 6005,
      "ãģĹãģŁãģ®ãģ¯": 6006,
      "1992": 6007,
      "ãĥ¦ãĥĭãĥĥãĥĪ": 6008,
      "1993": 6009,
      "æīĭãģĮ": 6010,
      "åĪĿä»£": 6011,
      "ãģĹãģŁãģĵãģ¨": 6012,
      "ãģ¤ãģĳãĤĭ": 6013,
      "FF": 6014,
      "éĸĭæ¥Ń": 6015,
      "ãģ®æ¥Ń": 6016,
      "ld": 6017,
      "ãĤ«ãĤ¹ãĤ¿": 6018,
      "çĲĨè«ĸ": 6019,
      "éłĲ": 6020,
      "éļ»": 6021,
      "ran": 6022,
      "NA": 6023,
      "ãĥĳãĤ½ãĤ³ãĥ³": 6024,
      "é¶´": 6025,
      "ãĥıãĤ¦": 6026,
      "åĪĨãģĳ": 6027,
      "èªŀãĤĭ": 6028,
      "ber": 6029,
      "åĽŀå¾©": 6030,
      "æĭĵ": 6031,
      "ãģ¨ãģķãĤĮãģ¦ãģĦãĤĭ": 6032,
      "ãģ§ãģįãģ¾ãģĹãģŁ": 6033,
      "ãģªãģ®": 6034,
      "è²łæĭħ": 6035,
      "âĨĵ": 6036,
      "ãĤĴåıĤçħ§": 6037,
      "åĽºå®ļ": 6038,
      "åıĤæĪ¦": 6039,
      "çİĩãģ¯": 6040,
      "ãĥŃãĤ¹": 6041,
      "ork": 6042,
      "å¤ªå¹³æ´ĭ": 6043,
      "çī©é¤¨": 6044,
      "ãĥĹãĥ¬ãĥŁ": 6045,
      "éĿ¢ç©į": 6046,
      "çı¾å®Ł": 6047,
      "ãĥ¡ãĤ¤": 6048,
      "æĢĸ": 6049,
      "ãĤĤãģªãģĦ": 6050,
      "é¨Ĵ": 6051,
      "ãĤ«ãĥĨãĤ´": 6052,
      "èµ·ãģį": 6053,
      "ãģ«å±ŀ": 6054,
      "ãĥ³ãĥĨãĥĬ": 6055,
      "ãģ®å¥³æĢ§": 6056,
      "ãĤ¦ãĤ§ãĤ¤": 6057,
      "ãĤĤãģĤãģ£ãģŁ": 6058,
      "ãģ«ä½ı": 6059,
      "ãģĹãĤį": 6060,
      "Ġç¬¬": 6061,
      "ãĤĴä¿Ŀ": 6062,
      "ä¼¸ãģ³": 6063,
      "ãĥŀãĤ·": 6064,
      "ndroid": 6065,
      "å¸Ĥç«ĭ": 6066,
      "å¤ļæ§ĺ": 6067,
      "æľĢåĪĿãģ«": 6068,
      "åŃ¦ç§ĳ": 6069,
      "ãĤ¢ãĥĹãĥªãĤ±ãĥ¼ãĤ·ãĥ§ãĥ³": 6070,
      "ç·©": 6071,
      "æ¯Ķè¼ĥçļĦ": 6072,
      "ãģ«ãģĬãģĦãģ¦ãĤĤ": 6073,
      "æĪĲç¸¾": 6074,
      "åı²ä¸Ĭ": 6075,
      "æĬĳ": 6076,
      "ãģ£ãģ¦ãģĦãģ¦": 6077,
      "è»½ãģ«": 6078,
      "æ®ĸ": 6079,
      "æ´¾éģ£": 6080,
      "å¾©æ´»": 6081,
      "ãĥŁãĥį": 6082,
      "ãģļãģ£ãģ¨": 6083,
      "ãĤ¸ãĥ³": 6084,
      "EX": 6085,
      "ãģ®æĸ¹ãģ¯": 6086,
      "You": 6087,
      "ãĥ¡ãĤ¸ãĥ£": 6088,
      "åŁ·çŃĨ": 6089,
      "å¯©æŁ»": 6090,
      "ãĥķãĤ£ãĥ¼ãĥ«ãĥī": 6091,
      "èĥ¸": 6092,
      "éĸ²": 6093,
      "äºĪéģ¸": 6094,
      "ãģĦãģļãĤĮãĤĤ": 6095,
      "ĠThe": 6096,
      "è£Ĥ": 6097,
      "åĥļ": 6098,
      "ãĥĢãĤ¤ãĥ¤": 6099,
      "åĲįãģĮ": 6100,
      "ãĥ¡ãĤ¤ãĤ¯": 6101,
      "ãģ®çķª": 6102,
      "è¬Ģ": 6103,
      "ãĤĴæ´»çĶ¨": 6104,
      "éĢĶä¸Ń": 6105,
      "ãĤĴæĢĿ": 6106,
      "çĶŁãģ¾ãĤĮãĤĭ": 6107,
      "ãģ¨æĢĿãģ£ãģŁ": 6108,
      "ãĥŁãĥ¥ãĥ¼ãĤ¸ãĥĥãĤ¯": 6109,
      "ãģ«çĿĢ": 6110,
      "ãĥ¡ãĥ¼ãĥ«ãĤ¢ãĥīãĥ¬ãĤ¹": 6111,
      "ãģ®åıĸãĤĬ": 6112,
      "å¦Ĭ": 6113,
      "ãĤ¯ãĥªãĤ¹ãĥŀ": 6114,
      "ãģ®èĬ±": 6115,
      "ark": 6116,
      "éĽ»åĬĽ": 6117,
      "1991": 6118,
      "æĬķç¥¨": 6119,
      "æĻĤä»£ãģ®": 6120,
      "ãĥĭãĥ¼ãĤº": 6121,
      "åł´ãģ§": 6122,
      "ãģ«æ®ĭ": 6123,
      "ãģĦãģŁãģłãģį": 6124,
      "ãģĮçĻº": 6125,
      "--------": 6126,
      "ãģ«æīĢå±ŀ": 6127,
      "å¶": 6128,
      "ãĤŃãĥ£ãĥ©": 6129,
      "å¢ĹåĬł": 6130,
      "ãģ´": 6131,
      "ç¤¾ãģ®": 6132,
      "__": 6133,
      "åĲĮå£«": 6134,
      "çī¹éĽĨ": 6135,
      "ãĥ³ãĥĭ": 6136,
      "çī©è³ª": 6137,
      "ãĥ¼ãĥĲãĥ«": 6138,
      "ãģ®çŃ": 6139,
      "ç¶ļãģĦãģ¦": 6140,
      "ãĤĴè³¼åħ¥": 6141,
      "ãģĹãĤĩ": 6142,
      "ãĥ¢ãĥĲãĤ¤ãĥ«": 6143,
      "BO": 6144,
      "ä¸įåı¯": 6145,
      "ä½İä¸ĭ": 6146,
      "è¶£åĳ³": 6147,
      "ãģ®çĤº": 6148,
      "ãģ®å¨ĺ": 6149,
      "ãģĭãĤĵ": 6150,
      "ç¾ħ": 6151,
      "ãĤ½ãĥ¼ãĥī": 6152,
      "ãģ®è¥¿": 6153,
      "ãģĮæ®ĭ": 6154,
      "ãĤĭãģĵãģ¨ãģĮãģ§ãģįãĤĭ": 6155,
      "éĢĨãģ«": 6156,
      "ãĥĨãĥ¼ãĥĸãĥ«": 6157,
      "ãģ¯æĹ¥æľ¬": 6158,
      "ãģ®åıİ": 6159,
      "ãĥľãĥ¼ãĥī": 6160,
      "ãĤ·ãĥ£ãĥĦ": 6161,
      "è¦ıåĪ¶": 6162,
      "ãģ®ç¯": 6163,
      "çİĦ": 6164,
      "ç´«": 6165,
      "æ°·": 6166,
      "æĤ£èĢħ": 6167,
      "åįĪå¾Į": 6168,
      "ãģĦãĤıãĤĨãĤĭ": 6169,
      "UT": 6170,
      "ãģķãģªãģĦ": 6171,
      "ãĤĴãģĬå±Ĭãģĳ": 6172,
      "ãģ®åĦª": 6173,
      "ãĥ¼ãĥĩãĥ³": 6174,
      "ãĥĥãĤ±ãĥ¼ãĤ¸": 6175,
      "å¾¹åºķ": 6176,
      "LINE": 6177,
      "ãĤ³ãĥ©ãĥľ": 6178,
      "ä¸ŃæŃ¢": 6179,
      "éĸĵãģ®": 6180,
      "åŁ¼çİī": 6181,
      "ãģĿãĤĮãģ§ãĤĤ": 6182,
      "åŃ¦éĻ¢": 6183,
      "ç¡¬": 6184,
      "ãģ®æĸ¹æ³ķ": 6185,
      "å¸ĤåĨħ": 6186,
      "å¯ĦãģĽ": 6187,
      "åĲĪä½µ": 6188,
      "ãĥģãĥ£ãĥ³ãĥĶ": 6189,
      "ãģ¾ãģ£ãģ¦": 6190,
      "ãĥŀãĤ¤ãĥ«": 6191,
      "éĢ®": 6192,
      "ãģĵãģ®åľ°": 6193,
      "éĢ®æįķ": 6194,
      "æľ¬äºº": 6195,
      "éĿĻå²¡": 6196,
      "ava": 6197,
      "ãģ¨ãģįãģ¯": 6198,
      "æ¥½ãģĹãģı": 6199,
      "çı¾å½¹": 6200,
      "éķ·ãģ¯": 6201,
      "ãģ£ãģ·": 6202,
      "ãģ«è²¢çĮ®": 6203,
      "1989": 6204,
      "åįĪåīį": 6205,
      "PR": 6206,
      "ãĥļãĥ«": 6207,
      "ãĥĥãĤŃãĥ¼": 6208,
      "æ°ĳæĹı": 6209,
      "ãģ«è¡Įãģı": 6210,
      "ãģ«æİ²è¼ī": 6211,
      "å¤ļãģĭãģ£ãģŁ": 6212,
      "ãĤ½éĢ£": 6213,
      "ä¿Ĭ": 6214,
      "ãĥ³ãĤ»ãĥĹãĥĪ": 6215,
      "ãĥ³ãĥĩãĤ£ãĥ³ãĤ°": 6216,
      "ãģ®åĬ¹": 6217,
      "å°ļ": 6218,
      "æľŃå¹Į": 6219,
      "å½¼ãĤīãģ¯": 6220,
      "æļ¦": 6221,
      "ãģĪãĤīãĤĮãĤĭ": 6222,
      "ãĥģãĤ±ãĥĥãĥĪ": 6223,
      "ãĥŀãĥĥãĥģ": 6224,
      "Twitter": 6225,
      "éĤª": 6226,
      "ãĤĴãģĹ": 6227,
      "æĦĽçŁ¥": 6228,
      "ãģ¾ãģ¤": 6229,
      "åł´åĲĪãģ«ãģ¯": 6230,
      "ä»ĭèŃ·": 6231,
      "ãģ®æµģãĤĮ": 6232,
      "ãģĭæľĪ": 6233,
      "ãģ®æ£": 6234,
      "ãģ«ãģ¤ãģį": 6235,
      "ãĥ³ãĤ¸ãĥ£": 6236,
      "ãĥľãĥĩãĤ£": 6237,
      "ãĥķãĥªãĥ¼": 6238,
      "ide": 6239,
      "çī¹æ®Ĭ": 6240,
      "ãĥ¼ãĤµãĥ¼": 6241,
      "ãģ®è±": 6242,
      "ãĥĲãĥ³ãĤ¯": 6243,
      "ãĤ¤ãĥĸ": 6244,
      "ãĤĦãģ£ãģ±ãĤĬ": 6245,
      "ãģĮèµ·ãģĵ": 6246,
      "ãģĨãģĪ": 6247,
      "ãĥªãĥĥãĤ¯": 6248,
      "ãģ¤ãģı": 6249,
      "ãĥŀãĥ¼ãĤ±ãĥĨãĤ£ãĥ³ãĤ°": 6250,
      "èĽ": 6251,
      "ãĥģãĥ£ãĥ³ãĥįãĥ«": 6252,
      "ãģ©ãģ®ãĤĪãģĨãģª": 6253,
      "oft": 6254,
      "èĮĤ": 6255,
      "é§Ĳè»Ĭ": 6256,
      "ãĥ¼ãĤ¸ãĥ¥": 6257,
      "éĩĳå±ŀ": 6258,
      "å¾Ĳ": 6259,
      "ãģĴãģ¦": 6260,
      "ãĤªãĤ¤ãĥ«": 6261,
      "äºĭæħĭ": 6262,
      "éĢģæĸĻçĦ¡æĸĻ": 6263,
      "ãģĻãĤĭãģĭ": 6264,
      "ãģ¨ç§°": 6265,
      "ä¸Īå¤«": 6266,
      "èħ°": 6267,
      "54": 6268,
      "ãģ®è²©": 6269,
      "åľ°éľĩ": 6270,
      "æķĻå¸«": 6271,
      "ãĤ¤ãĥ³ãĥģ": 6272,
      "ãĥĥãĤ³": 6273,
      "ãģĳãģ°": 6274,
      "ãģ®æ¨©": 6275,
      "ä¿Ĺ": 6276,
      "ãģ®åīµ": 6277,
      "æĦŁè¦ļ": 6278,
      "Ġ2018": 6279,
      "ãģĶéĢ£çµ¡": 6280,
      "ãĥªãĤºãĥł": 6281,
      "ãĥ³ãĤ¼": 6282,
      "ãģ«éĸ¢ãģĹãģ¦": 6283,
      "ãģªãģıãģªãĤĭ": 6284,
      "å¡Ķ": 6285,
      "ãĤĴå¤±": 6286,
      "ãĢī": 6287,
      "acebook": 6288,
      "ãĤĴæĮģãģ£ãģ¦": 6289,
      "ãģ®è©¦åĲĪ": 6290,
      "ãģĤãģªãģŁãģ®": 6291,
      "åĤµ": 6292,
      "ãģŁãĤģãģ®": 6293,
      "çĶ·åŃĲ": 6294,
      "è¦³æ¸¬": 6295,
      "HT": 6296,
      "ĠãĤ¨": 6297,
      "ãģĭãģ¨": 6298,
      "åıĭéģĶ": 6299,
      "ãĤ¦ãĤ£ãĥªãĤ¢ãĥł": 6300,
      "çłĶä¿®": 6301,
      "æ°ıãģĮ": 6302,
      "ä»¥ä¸Ĭãģ«": 6303,
      "ãĥĵãĥ¼ãĥ«": 6304,
      "å¦Ĥ": 6305,
      "ãĥĿãĤ¸": 6306,
      "è¿ĳå¹´": 6307,
      "ies": 6308,
      "ãģ®çī¹å¾´": 6309,
      "51": 6310,
      "ãĤĮãģ¦ãģĦãģŁ": 6311,
      "äºĪéĺ²": 6312,
      "ãģķãĤĵãģ«": 6313,
      "æĸ¹éĩĿ": 6314,
      "äºĭãģ¯": 6315,
      "ãģ®è¨ĺäºĭ": 6316,
      "åķĨæ¥Ń": 6317,
      "æĪĴ": 6318,
      "åħĦå¼Ł": 6319,
      "åı¤ãģĦ": 6320,
      "ãĤ«ãĤ¿": 6321,
      "ãĥ¤ãĥŀ": 6322,
      "ãĥĪãĥªãĥĥãĤ¯": 6323,
      "èĭ¥ãģĦ": 6324,
      "ãģ®ä¸ī": 6325,
      "èª¿ãģ¹": 6326,
      "ãģĵãģ¨ãĤĤãģĤãĤĬ": 6327,
      "MS": 6328,
      "åı¤ä»£": 6329,
      "ãģĪãģļ": 6330,
      "å²³": 6331,
      "äººæ°ĳ": 6332,
      "ep": 6333,
      "ç£ģ": 6334,
      "Â°": 6335,
      "ãĥĲãĥ¼ãĥĪ": 6336,
      "ãĥ³ãĤ¶": 6337,
      "é¦ĸéĥ½": 6338,
      "åĪ¥ãģ«": 6339,
      "ãģ®å°ĳ": 6340,
      "ãĤªãĥ³ãĥ©ãĤ¤": 6341,
      "for": 6342,
      "ãģ®ãģ²ãģ¨ãģ¤": 6343,
      "ãģ®æ¤ľ": 6344,
      "co": 6345,
      "æĬµ": 6346,
      "ä»Ļåı°": 6347,
      "èĩªèº«ãģ®": 6348,
      "æµ´": 6349,
      "ãģ¯ãģĵãģ®": 6350,
      "ãĥ»ãĥ»ãĥ»ãĥ»": 6351,
      "ãģ«åħ¥ãĤĭ": 6352,
      "ãĤĴè¨Ńç«ĭ": 6353,
      "çĥ": 6354,
      "âĢ¢": 6355,
      "åı¥": 6356,
      "ãģ®åĪ¤": 6357,
      "å±±åı£": 6358,
      "æĿ¥ãģŁ": 6359,
      "cri": 6360,
      "è½": 6361,
      "ãĤĴåĭĻãĤģãĤĭ": 6362,
      "ãĤĴãģĬé¡ĺãģĦ": 6363,
      "æĪ¦å¾Į": 6364,
      "ãĥĪãĥ©ãĥĸãĥ«": 6365,
      "ä½¿ãĤıãĤĮãĤĭ": 6366,
      "ãģĻãģ¨": 6367,
      "å¿«éģ©": 6368,
      "ãĤ¬ãĥ©ãĤ¹": 6369,
      "ãĤĤåĲ«": 6370,
      "ãģĭãĤĬãģ¾ãģĻ": 6371,
      "ase": 6372,
      "ãģ®ãĤĤãģ¨": 6373,
      "Amazon": 6374,
      "ãĤ¹ãĥĪãĥ¬ãĤ¹": 6375,
      "52": 6376,
      "ll": 6377,
      "ãĤ¹ãĥļãĤ·ãĥ£ãĥ«": 6378,
      "ãģıãĤĮãģ¾ãģĻ": 6379,
      "per": 6380,
      "å¯ĦãĤĬ": 6381,
      "æĹ¥ãĤĪãĤĬ": 6382,
      "æĭĿ": 6383,
      "ãĤ¹ãĥĿãĥĥãĥĪ": 6384,
      "ä¼Ŀèª¬": 6385,
      "åĲįèªī": 6386,
      "ãģĦãģ§ãģĻ": 6387,
      "åľ°çĲĨ": 6388,
      "ç¾İåĳ³ãģĹãģĦ": 6389,
      "ãĥ¬ãĤ¹ãĥĪ": 6390,
      "éĪ´æľ¨": 6391,
      "å¢ĵ": 6392,
      "ãĥļãĥĥãĥĪ": 6393,
      "æĺİãĤĭ": 6394,
      "ãģ®ãģ»ãģĭ": 6395,
      "SNS": 6396,
      "ãĤ¯ãĥªãĤ¢": 6397,
      "ãģ®æ¥½": 6398,
      "ãĤ¦ãĥĥãĥī": 6399,
      "å¤§éĩı": 6400,
      "ãģ¿ãģŁ": 6401,
      "æĪĲåĪĨ": 6402,
      "ç¿»è¨³": 6403,
      "ãģ®åľŁ": 6404,
      "ç¦ıå³¶": 6405,
      "æĿĲæĸĻ": 6406,
      "å¡ģæīĵ": 6407,
      "ãģĦãģªãģĦ": 6408,
      "ãĥĨãĥ¬": 6409,
      "ä¸¹": 6410,
      "åĥįãģı": 6411,
      "æĤ©ãģ¿": 6412,
      "è¦ĭãģ¦": 6413,
      "ax": 6414,
      "Mac": 6415,
      "HI": 6416,
      "éĸĭå¹ķ": 6417,
      "æĤ²": 6418,
      "ãĤ¯ãĥªãĥ¼ãĥł": 6419,
      "ãĤ¸ãĥ«": 6420,
      "éĢ£çĽŁ": 6421,
      "ãĤ¢ãĤ¤ãĥĩ": 6422,
      "ãģĵãĤĮãģ«ãĤĪãĤĬ": 6423,
      "åĪ©çĽĬ": 6424,
      "600": 6425,
      "ĵģ": 6426,
      "è¸Ĭ": 6427,
      "ãĤªãĥ©ãĥ³ãĥĢ": 6428,
      "77": 6429,
      "èī¯ãģĭãģ£ãģŁ": 6430,
      "ãĤŃãĥ£ãĥ³ãĥĹ": 6431,
      "ãĤıãģĭãĤĭ": 6432,
      "æ¸ĭè°·": 6433,
      "åĳ³ãĤı": 6434,
      "ãģ®ç¿": 6435,
      "ãģ«åĲĪãĤıãģĽãģ¦": 6436,
      "ãĢĪ": 6437,
      "åįļçī©é¤¨": 6438,
      "ãĥīãĥ¬ãĤ¹": 6439,
      "ãģĮåĩºãģ¦": 6440,
      "éĿ´": 6441,
      "ä¸ĩäºº": 6442,
      "ãģ¨ä¸Ģç·Ĵãģ«": 6443,
      "æ¼ģ": 6444,
      "ãģĵãģ®ãģŁãĤģ": 6445,
      "åľ°ãģ¯": 6446,
      "ãģıãĤĵ": 6447,
      "äºĪç®Ĺ": 6448,
      "åįĹéĥ¨": 6449,
      "ãģ«åħ¥ãģ£ãģŁ": 6450,
      "ãģ«éĢļ": 6451,
      "ãģĮåŃĺåľ¨": 6452,
      "ãģĿãģ®æĻĤ": 6453,
      "æĺĩæł¼": 6454,
      "è²łãģĳ": 6455,
      "çĶ°ä¸Ń": 6456,
      "ain": 6457,
      "é£Łãģ¹ãĤĭ": 6458,
      "ãģ«èĩ³ãĤĭ": 6459,
      "ãģ®ãĥĲ": 6460,
      "Ġãĥŀ": 6461,
      "åĴ²": 6462,
      "ä»ĺãģĳãĤĭ": 6463,
      "åĪĢ": 6464,
      "ãģ®è²©å£²": 6465,
      "ãģ®è³ª": 6466,
      "ãģ§ãģĻãģ®ãģ§": 6467,
      "çĦ¡ãģı": 6468,
      "ãĤ»ãĥ¼ãĥ«": 6469,
      "çĻºè¡¨ãģĹãģŁ": 6470,
      "æ½®": 6471,
      "ãĤĴæ¯": 6472,
      "ãĥ¼ãĥı": 6473,
      "æĶ¯éħį": 6474,
      "ãĤĴè¨ª": 6475,
      "éŁ³å£°": 6476,
      "çĶ¨åĵģ": 6477,
      "ãģ£ãģĹãĤĥ": 6478,
      "ãģĬãģĭ": 6479,
      "ãĤĴçĽ®æĮĩãģĻ": 6480,
      "éķ·éĩİ": 6481,
      "ãĤĴåīµ": 6482,
      "åľ°ä¸Ĭ": 6483,
      "éĺ²å¾¡": 6484,
      "ä¸Ńç¶Ļ": 6485,
      "act": 6486,
      "ãģ£ãģ¨ãĤĤ": 6487,
      "åŃ£ç¯Ģ": 6488,
      "ãģ«ãģªãģ£ãģ¦ãģĦãģŁ": 6489,
      "ãĥ¬ãĥ¼": 6490,
      "ãģ®åĳ¨": 6491,
      "ãĥĬãĤ¤ãĥĪ": 6492,
      "AY": 6493,
      "ç¶Ļæī¿": 6494,
      "ãĥĻãĥ«ãĥĪ": 6495,
      "æĻĤéĸĵãģĮ": 6496,
      "éĢģä¿¡": 6497,
      "éģĩ": 6498,
      "ãĤ¹ãĥĪãĤ¢": 6499,
      "äººæĿĲ": 6500,
      "éĬĺ": 6501,
      "ä¸Ĭæĺĩ": 6502,
      "ãĤĴå±ķéĸĭ": 6503,
      "çĦ¡çĲĨ": 6504,
      "ãĤ¤ãĤ¢": 6505,
      "ãģĵãģ®è¨ĺäºĭ": 6506,
      "éħįéĢģ": 6507,
      "ãĥ¬ãĤª": 6508,
      "ãģ®è©ķ": 6509,
      "å¼ģèŃ·å£«": 6510,
      "150": 6511,
      "ãĥŃãĥ³ãĤ°": 6512,
      "è²¼": 6513,
      "ãĤģãģ¾ãģĻ": 6514,
      "ãģ®å·¥": 6515,
      "88": 6516,
      "è©±ãģĹ": 6517,
      "!!!": 6518,
      "æľĢå¾Įãģ®": 6519,
      "ãģ®æĹ¥æľ¬": 6520,
      "ãģ®ãĤ¿": 6521,
      "ãĥľãĤ¿ãĥ³": 6522,
      "èĳĹä½ľ": 6523,
      "ãģ¨ãģ®ãģĵãģ¨": 6524,
      "ib": 6525,
      "ç¬¬äºĮæ¬¡ä¸ĸçķĮå¤§æĪ¦": 6526,
      "ãĤ¹ãĤ³ãĥĥãĥĪ": 6527,
      "ãĤ«ãĥ¼": 6528,
      "ãģ«å½ĵ": 6529,
      "ãģ®ãĥı": 6530,
      "ãģłãģ¨æĢĿãģĦãģ¾ãģĻ": 6531,
      "ick": 6532,
      "ace": 6533,
      "Ġr": 6534,
      "ãĤĬãģ¾ãģĹãģŁ": 6535,
      "ãĤ®ãĤ¿ãĥ¼": 6536,
      "ãģ®æģ¯": 6537,
      "ãģ®è¼": 6538,
      "çĻĴ": 6539,
      "ãĥŀãĤ¹": 6540,
      "ä¸»ãģª": 6541,
      "åĲĮãģĺãģı": 6542,
      "çķ¥æŃ´": 6543,
      "çĹĩçĬ¶": 6544,
      "ãĤģãģ«": 6545,
      "ãĥķãĥ©ãĤ¤": 6546,
      "åĩºãģĹãģ¦": 6547,
      "æłĦé¤Ĭ": 6548,
      "ãģĦãģ®": 6549,
      "ãģ®çľŁ": 6550,
      "WS": 6551,
      "å½¹åī²": 6552,
      "å®¶ãģ¯": 6553,
      "DF": 6554,
      "æĶ¯æīķãģĦ": 6555,
      "ãĥķãĤ¸": 6556,
      "æļ®ãĤīãģĹ": 6557,
      "æĹ¥ä»ĺ": 6558,
      "ãģ£ãģ¦ãģĦãģ¾ãģĹãģŁ": 6559,
      "æĻĤçĤ¹": 6560,
      "Â®": 6561,
      "çħĻ": 6562,
      "ç¶±": 6563,
      "ãģ®è©³": 6564,
      "ãĤ¤ãĥ³ãĤ°ãĥ©ãĥ³ãĥī": 6565,
      "å¼ķãģįç¶ļãģį": 6566,
      "ãĥ¼ãĥķãĤ§": 6567,
      "ãģ®æ´": 6568,
      "ãĥĳãĥ¼ãĤ¯": 6569,
      "èĬ¸èĥ½": 6570,
      "ãģ¥ãģĳ": 6571,
      "æŁ³": 6572,
      "ãģĤãĤĮ": 6573,
      "ãĥİãĥ¼ãĥĪ": 6574,
      "ãĤĴä¸İãģĪãĤĭ": 6575,
      "ãĤµãĥŃãĥ³": 6576,
      "ãģĿãĤį": 6577,
      "ãĤ³ãĥ«": 6578,
      "ãģ«è¿ĳãģĦ": 6579,
      "ãģĶæ³¨æĸĩ": 6580,
      "æ¢¨": 6581,
      "ãģ°ãĤĮãģŁ": 6582,
      "è»Ł": 6583,
      "æĮĻãģĴ": 6584,
      "éķ·æľŁ": 6585,
      "ºéºĹ": 6586,
      "ãĥľãĥ¼": 6587,
      "ãģ¨æĢĿãģĦ": 6588,
      "ãĤ¤ãĥł": 6589,
      "ãĤ¹ãĥĶãĥ¼ãĥī": 6590,
      "ãĤīãĤĮãģ¦ãģĦãģ¾ãģĻ": 6591,
      "äºĢ": 6592,
      "ãģ¾ãĤĮãģ¦": 6593,
      "æ¥½ãģĹãĤģãĤĭ": 6594,
      "éĢĲ": 6595,
      "éİĮ": 6596,
      "åĮĸãģĻãĤĭ": 6597,
      "Ġyou": 6598,
      "ãģĬãģĦ": 6599,
      "ãĤ°ãĥ©ãĥķãĤ£": 6600,
      "ãĥĪãĥ¼ãĤ¯": 6601,
      "ãģ§è¡ĮãĤıãĤĮãģŁ": 6602,
      "è«ĭæ±Ĥ": 6603,
      "ãĤ¨ãĥįãĥ«ãĤ®ãĥ¼": 6604,
      "æħ¢": 6605,
      "ãĤ¤ãĤ¹ãĥ©": 6606,
      "ãĤªãĥķãĤ£ãĤ¹": 6607,
      "lay": 6608,
      "ãģĻãģĶãģı": 6609,
      "ãģŁãģ¨ãģĪãģ°": 6610,
      "è£ģåĪ¤æīĢ": 6611,
      "ä½ĵãģ®": 6612,
      "ãģĶãĤį": 6613,
      "ãĥĳãĥ¯": 6614,
      "ãĥķãĤ¡ãĥŁ": 6615,
      "çĵ": 6616,
      "ãĥİãĥ«": 6617,
      "¨ãģ¦": 6618,
      "ç¶ļãģĳãģŁ": 6619,
      "ãģĮä»ĺ": 6620,
      "ãĥĲãĤ¤ãĤ¯": 6621,
      "åħħå®Ł": 6622,
      "çķ°ãģª": 6623,
      "ãĥĹãĥ©ãĥĥãĥĪãĥķãĤ©ãĥ¼ãĥł": 6624,
      "èĴ¸": 6625,
      "ãĥĻãĥĪ": 6626,
      "ãĤ¯ãĤ¿ãĥ¼": 6627,
      "53": 6628,
      "ãĤ¯ãĥŃãĤ¹": 6629,
      "æ¯Ķãģ¹ãģ¦": 6630,
      "ç´Ģåħĥ": 6631,
      "ãĤ±ãĥ«": 6632,
      "äºĭæĥħ": 6633,
      "ãģ¯ãĤĦ": 6634,
      "ä»ĬåĽŀãģ®": 6635,
      "èĨľ": 6636,
      "ãģĨãģ¾ãģı": 6637,
      "ãģ®ãģĬå®¢æ§ĺ": 6638,
      "åĢŁãĤĬ": 6639,
      "ãģªãģģ": 6640,
      "åĪĿå¿ĥ": 6641,
      "ãĤ»ãĥ©": 6642,
      "æľ¬ç¤¾": 6643,
      "ãģıãģłãģķ": 6644,
      "è¿½ãģĦ": 6645,
      "Ġwith": 6646,
      "ãĤªãĥļ": 6647,
      "äºĭãģ§": 6648,
      "çĻºéĢģ": 6649,
      "ãģ«æĪĲåĬŁ": 6650,
      "ãģ®æĴ": 6651,
      "è²¯": 6652,
      "KO": 6653,
      "ãĥ¢ãĥģ": 6654,
      "ãĥĶãĤ½ãĥ¼ãĥī": 6655,
      "äºĪæ¸¬": 6656,
      "åħ±çĶ£": 6657,
      "çī©ãģĮ": 6658,
      "ãģ®å¢Ĺ": 6659,
      "éĥµä¾¿": 6660,
      "åįĬå³¶": 6661,
      "ãģªãĤīãģļ": 6662,
      "ãģ®ãģ§ãģĹãĤĩãģĨãģĭ": 6663,
      "åĬĽãģ¯": 6664,
      "1988": 6665,
      "é¡ķ": 6666,
      "ãĤ³ãĥŁãĥ¥ãĥĭãĥĨãĤ£": 6667,
      "ãģ«ãģĤãģŁãĤĭ": 6668,
      "å¿ĥåľ°": 6669,
      "å°ıåŀĭ": 6670,
      "ãģ®åºĹ": 6671,
      "ãĤ¢ãĤ«ãĥĩ": 6672,
      "åŀ£": 6673,
      "ãĤ¢ãĤ·": 6674,
      "ãĤĴè²ł": 6675,
      "ish": 6676,
      "ä»ķçµĦãģ¿": 6677,
      "ãĤ³ãĥŁãĥ¥ãĥĭãĤ±ãĥ¼ãĤ·ãĥ§ãĥ³": 6678,
      "ãģĿãģ®ãĤĪãģĨãģª": 6679,
      "ix": 6680,
      "ãĤ³ãĥ³ãĥĳ": 6681,
      "ä½ĲèĹ¤": 6682,
      "éĸĵéģķãģĦ": 6683,
      "éĽħ": 6684,
      "ãģ«ä»ķ": 6685,
      "é¦Ļæ¸¯": 6686,
      "ãģĮãģĦãĤĭ": 6687,
      "ãģ®æĮģ": 6688,
      "çľĮç«ĭ": 6689,
      "çķĳ": 6690,
      "æľ¬éĥ¨": 6691,
      "éĥĬ": 6692,
      "å¹´åīį": 6693,
      "çĩ¥": 6694,
      "ãģıãģªãģĦ": 6695,
      "ç´Ľ": 6696,
      "æĶ¯æĮģ": 6697,
      "ä¸ģå¯§": 6698,
      "æīĭæķ°": 6699,
      "æĸĩç«ł": 6700,
      "ãĤ¯ãĥ¬ãĤ¸ãĥĥãĥĪãĤ«ãĥ¼ãĥī": 6701,
      "ãģĭãĤıãĤīãģļ": 6702,
      "ç§ģãģŁãģ¡ãģ¯": 6703,
      "æĻ©": 6704,
      "ç©įæ¥µçļĦãģ«": 6705,
      "Ġkm": 6706,
      "ãģ¨ãģĵãĤįãģĮ": 6707,
      "66": 6708,
      "ros": 6709,
      "ãĤ¹ãĥĪãĥ¬": 6710,
      "log": 6711,
      "ãĤ¿ãĤ¦": 6712,
      "æĳĤ": 6713,
      "çµĲæ§ĭ": 6714,
      "ç·ļãģĮ": 6715,
      "ãģıãĤī": 6716,
      "æĹ¥è¨ĺ": 6717,
      "ãĥĢãĥĸãĥ«": 6718,
      "çī©ãģ¯": 6719,
      "ä¸ĭãģ«": 6720,
      "ãĤĴå¢Ĺ": 6721,
      "ãĤĦãģĭ": 6722,
      "èĢĥãģĪãģŁ": 6723,
      "ç·ĬæĢ¥": 6724,
      "ãĥªãĥ¼ãģ¯": 6725,
      "æĿ¥ãĤĭ": 6726,
      "åĽŀè»¢": 6727,
      "å°ıãģķãģĦ": 6728,
      "ãģ®æ¼": 6729,
      "ãĤīãĤĮãģ¦ãģĬãĤĬ": 6730,
      "å¿ĥéħį": 6731,
      "ãģ¿ãģ®": 6732,
      "çļĩå¸Ŀ": 6733,
      "éģºä¼Ŀ": 6734,
      "ãĥ³ãĤ¿ãĥ¼": 6735,
      "éĢļè²¨": 6736,
      "ãĥ©ãĥĸ": 6737,
      "èĢħãģ¨": 6738,
      "è»Įéģĵ": 6739,
      "åĽ½éģĵ": 6740,
      "ä»ĺãģĳãģ¦": 6741,
      "éĿ¢çĻ½ãģĦ": 6742,
      "ãĤĴçį²å¾ĹãģĹãģŁ": 6743,
      "æµĦ": 6744,
      "ãģ£ãģŁãģĮ": 6745,
      "ãĥĨãĤ¯ãĥİãĥŃ": 6746,
      "æĢĿãģĨ": 6747,
      "ãĤ«ãĥŃ": 6748,
      "ãģĬãģĨ": 6749,
      "âĺħâĺħ": 6750,
      "ä½ľãĤīãĤĮãģŁ": 6751,
      "éĸ²è¦§": 6752,
      "çĳ": 6753,
      "ãģĵãģ®å¹´": 6754,
      "ãģĹãģ°ãĤīãģı": 6755,
      "ãĥķãĤ©ãĥ¼ãĥī": 6756,
      "ãĥıãĥ¯ãĤ¤": 6757,
      "ãģ®å¤īåĮĸ": 6758,
      "ãģĭãģĮ": 6759,
      "å½¼å¥³ãģ¯": 6760,
      "ãģĿãģ®åł´": 6761,
      "UM": 6762,
      "ãĤ¹ãĥĪãĥ³": 6763,
      "ãĤĴæĮģãģ£ãģ¦ãģĦãĤĭ": 6764,
      "ãĥĳãĥķãĤ©ãĥ¼ãĥŀãĥ³ãĤ¹": 6765,
      "ä½ıæīĢ": 6766,
      "çĶ³ãģĹä¸ĬãģĴãģ¾ãģĻ": 6767,
      "ãģ¨èªŀ": 6768,
      "ãĤ°ãĥĥãĤº": 6769,
      "å½ĵçĦ¶": 6770,
      "ä½ĵãģ«": 6771,
      "åĶĲ": 6772,
      "ãĥĢãĤ¤ãĤ¨ãĥĥãĥĪ": 6773,
      "ĠãĢĤ": 6774,
      "çĶ³ãģĹè¾¼ãģ¿": 6775,
      "ãģĻãģİãĤĭ": 6776,
      "ä¸Ńãģ¯": 6777,
      "1950": 6778,
      "éĬħ": 6779,
      "ãģ«å¿ľãģĺãģ¦": 6780,
      "ãģĻãģ¹ãģ¦ãģ®": 6781,
      "åŃĿ": 6782,
      "ail": 6783,
      "ä¹¾çĩ¥": 6784,
      "ãģĵãģłãĤıãĤĬ": 6785,
      "ä»£ãĤıãĤĬãģ«": 6786,
      "ãģ¨æĦŁãģĺ": 6787,
      "è³ĩçĶ£": 6788,
      "ãģ¨å¯¾æĪ¦": 6789,
      "1987": 6790,
      "CP": 6791,
      "çĶ¨ãģĦãĤīãĤĮãĤĭ": 6792,
      "æŀĿ": 6793,
      "ãĥªãĤ³": 6794,
      "ãģĹãģķ": 6795,
      "ãĤ°ãĥŃãĥ¼ãĥĲãĥ«": 6796,
      "æİ¨éĢ²": 6797,
      "ãģĲãĤīãģĦ": 6798,
      "ãĤģãģ§": 6799,
      "ãĥ³ãĥ¬": 6800,
      "ãģĮè¨Ńç½®": 6801,
      "ãĥ¬ãĤ®ãĥ¥": 6802,
      "ãĤ¯ãĤ¨ãĤ¹ãĥĪ": 6803,
      "ãĤ·ãĥĶ": 6804,
      "åĮĸãģķãĤĮãģŁ": 6805,
      "å»·": 6806,
      "ng": 6807,
      "ĴåĲ¦": 6808,
      "ä»£çĲĨ": 6809,
      "ãģ®åĲĳ": 6810,
      "ãģ®å±ķ": 6811,
      "ç´łæķµãģª": 6812,
      "ãĤĴæºĢ": 6813,
      "ãĤ¤ãĥ³ãĤ¹ãĤ¿": 6814,
      "å®Łç¸¾": 6815,
      "SE": 6816,
      "ãģĦãģŁãģłãģı": 6817,
      "ãģĹãģ¦ãĤĭ": 6818,
      "ãĤĴä¸Ĭ": 6819,
      "ãĥĬãĥĵ": 6820,
      "ãĥģãĥ£ãĥ¬ãĥ³ãĤ¸": 6821,
      "omp": 6822,
      "ãģ®çĪ¶": 6823,
      "ãĤ·ãĥ³ãĤ¬": 6824,
      "ãĤ«ãĥĲãĥ¼": 6825,
      "çĨĬæľ¬": 6826,
      "ãģ®ä¸Ńãģ§ãĤĤ": 6827,
      "ãģķãĤĮãĤĭãģ¨": 6828,
      "ãģ«ãģıãģĦ": 6829,
      "æĢ§ãģ¯": 6830,
      "ç¶ºéºĹ": 6831,
      "ãģĹãģ¦ãģĦãĤĭãģĮ": 6832,
      "ãģĻãģª": 6833,
      "èªįè¨¼": 6834,
      "ãĤĦãģı": 6835,
      "åıİåħ¥": 6836,
      "ang": 6837,
      "ãĤ«ãĤ¤": 6838,
      "ãĤĴéģĶæĪĲ": 6839,
      "æĻ¶": 6840,
      "ãĤĴè¿Ķ": 6841,
      "ãģ¨ãģªãģ£ãģ¦ãģĦãģŁ": 6842,
      "æĶ¾éĢģãģķãĤĮãģŁ": 6843,
      "ãģĮç¶ļ": 6844,
      "ãĤ¹ãĥ«": 6845,
      "ãģĮçĻ»åł´": 6846,
      "ãģ²ãģ¨ãĤĬ": 6847,
      "ãĤīãģªãģĭãģ£ãģŁ": 6848,
      "ml": 6849,
      "ãĤ´ãĥ«ãĥķ": 6850,
      "ãģ§ãģĻãģĭãĤī": 6851,
      "èĩªç¤¾": 6852,
      "ç®ĩ": 6853,
      "ãģıãģ¾ãģ§": 6854,
      "URL": 6855,
      "ãĥŃãĥŀ": 6856,
      "ä¸ĭãģ®": 6857,
      "è²ŀ": 6858,
      "éĩįè¦ĸ": 6859,
      "ç¾İè¡ĵé¤¨": 6860,
      "ãģĹãĤĥãĤĮ": 6861,
      "ĊĠĠĠ": 6862,
      "åīįåĽŀ": 6863,
      "åħĪãģ«": 6864,
      "éģİç¨ĭ": 6865,
      "able": 6866,
      "åĭ§ãĤģ": 6867,
      "åģ½": 6868,
      "ãģįãĤĮ": 6869,
      "å¥´": 6870,
      "æ°ĳä¸»åħļ": 6871,
      "æİĪæ¥Ń": 6872,
      "TR": 6873,
      "èĩªèº«ãģĮ": 6874,
      "éħµ": 6875,
      "ãĥ³ãĥĹãĥª": 6876,
      "ãģĹãģŁåł´åĲĪ": 6877,
      "æ¼Ķåĩº": 6878,
      "»çĻĤ": 6879,
      "ãĥķãĤ©ãĥ«ãĥĭãĤ¢": 6880,
      "ãĥªãĥĲ": 6881,
      "èŃ°è«ĸ": 6882,
      "å¸°åĽ½": 6883,
      "ãģ¶ãĤĬãģ«": 6884,
      "å¸Ĥãģ®": 6885,
      "ç§ģãĤĤ": 6886,
      "ä¸ĭãģĮ": 6887,
      "ãģįãģ¾ãģĹãĤĩãģĨ": 6888,
      "ãģĹãģ¦ãģĭãĤī": 6889,
      "ãģĳãĤĮãģ©": 6890,
      "ãĥ¬ãĥĥãĤ¹ãĥ³": 6891,
      "æľīæĸĻ": 6892,
      "GP": 6893,
      "ãĤ¹ãĤ¦ãĤ§": 6894,
      "nt": 6895,
      "å¹³åĴĮ": 6896,
      "ãĥ«ãĤ¤": 6897,
      "ãĤ¿ãĤ¯": 6898,
      "ãĤ¨ãĥ¬": 6899,
      "1985": 6900,
      "Tube": 6901,
      "ãĥĨãĤŃãĤ¹ãĥĪ": 6902,
      "cript": 6903,
      "åĮĸãģĹ": 6904,
      "ãĤĴçĿĢ": 6905,
      "ãģ®è©³ç´°": 6906,
      "Ġ20": 6907,
      "ç¥ī": 6908,
      "ãģĹãģ°ãģĹãģ°": 6909,
      "ãģ®èģ·": 6910,
      "åŁºç¤İ": 6911,
      "åŁºæľ¬çļĦãģ«": 6912,
      "Ġ,": 6913,
      "ãĤ¬ãĥ¼": 6914,
      "ãģ¿ãĤĭ": 6915,
      "ãĥŀãĥ«ãĥģ": 6916,
      "ãĥĿãĥ¼ãĥ©ãĥ³ãĥī": 6917,
      "ãĤµãĥ³ãĥī": 6918,
      "ãģ®å¤īæĽ´": 6919,
      "ãĤıãĤĮãģ¦ãģĦãģŁ": 6920,
      "å¤©çĦ¶": 6921,
      "ãĤ³ãĥ³ãĤµãĥ«": 6922,
      "ãĤ§ãĥ«": 6923,
      "ãĤĴè¶ħãģĪãĤĭ": 6924,
      "ãģ®æĦĽ": 6925,
      "ãĢĤãĢĤãĢĤ": 6926,
      "ãģ®éĸ¢ä¿Ĥ": 6927,
      "ãĥŀãĤ¤ãĤ¯ãĥŃ": 6928,
      "æ¸Ľå°ĳ": 6929,
      "ãģĦãģŁãģĹãģ¾ãģĹãģŁ": 6930,
      "ãģ¨ãģªãĤĬãģ¾ãģĹãģŁ": 6931,
      "ãģĺãĤģ": 6932,
      "ä¼ĿãģĪãĤĭ": 6933,
      "IR": 6934,
      "ãģ®åł±": 6935,
      "è¡¨éĿ¢": 6936,
      "ash": 6937,
      "Ĳį": 6938,
      "Bl": 6939,
      "åĩ¦åĪĨ": 6940,
      "ãĥĹãĥ©ãĥ³": 6941,
      "å¹´ãĤĤ": 6942,
      "Ġ18": 6943,
      "å¥Īèī¯": 6944,
      "å·¦åı³": 6945,
      ")(": 6946,
      "ãĥĩãĤ¹": 6947,
      "éłĥãģ«": 6948,
      "ãģ»ãĤĵ": 6949,
      "æİ²": 6950,
      "åĲĮçĽŁ": 6951,
      "ãĤĴæķ´": 6952,
      "å¼ķãģ£": 6953,
      "ãĤĦãģĮ": 6954,
      "ãĤĬãģ¯": 6955,
      "1986": 6956,
      "78": 6957,
      "ãĥ¼ãĥ«ãģ¯": 6958,
      "ãģĹãģ¾ãģĦãģ¾ãģĹãģŁ": 6959,
      "æ¯İéĢ±": 6960,
      "çĶ¨èªŀ": 6961,
      "ãģķãĤĵãģ¨": 6962,
      "çĻ»æĿ¿": 6963,
      "çĻºè¨Ģ": 6964,
      "ãĥĳãĥĥãĤ±ãĥ¼ãĤ¸": 6965,
      "èįĺ": 6966,
      "ary": 6967,
      "ãĤ»ãĥŁãĥĬãĥ¼": 6968,
      "æĸİ": 6969,
      "åĲĪãģĽ": 6970,
      "éĢ²åĩº": 6971,
      "ãģĹãģ¦ãģĦãģ¦": 6972,
      "è«¸å³¶": 6973,
      "®å½±": 6974,
      "OW": 6975,
      "èª²ç¨ĭ": 6976,
      "ey": 6977,
      "ãĤĴæİ¨": 6978,
      "ãģ®åŁºæľ¬": 6979,
      "UP": 6980,
      "ãģ®ç¨®é¡ŀ": 6981,
      "å²¡å±±": 6982,
      "ãģĿãģ®å¾Įãģ¯": 6983,
      "ug": 6984,
      "æĨ²æ³ķ": 6985,
      "ä¸Ģéĥİ": 6986,
      "ãģ«ãģĹ": 6987,
      "èīĩ": 6988,
      "ä½įãĤĴ": 6989,
      "ph": 6990,
      "ãģ®éĸĵãģ«": 6991,
      "å¿Ļ": 6992,
      "éķ·å´İ": 6993,
      "ãĤĤå¤ļãģĦ": 6994,
      "æĹ¢åŃĺ": 6995,
      "ame": 6996,
      "ãģ¨æĢĿãģ£ãģ¦ãģĦãģ¾ãģĻ": 6997,
      "è¿ĳä»£": 6998,
      "ãģ©ãģ®": 6999,
      "ãĥĶãĥ³": 7000,
      "æĸ°ä½ľ": 7001,
      "ãĥ©ãĤ°": 7002,
      "ãģ§ä½¿çĶ¨": 7003,
      "äº«": 7004,
      "ãģ®ç®¡çĲĨ": 7005,
      "ãĥ¢ãĥ³ãĥī": 7006,
      "ãģĮéĸĭåĤ¬": 7007,
      "ãĤĴå¾ĹãģŁ": 7008,
      "ä¸ĢæĻĤ": 7009,
      "ä¹ĥ": 7010,
      "ãģ¨ãģªãģ£ãģ¦ãģĦãģ¾ãģĻ": 7011,
      "Ġ~": 7012,
      "ãĤıãģĭãĤīãģªãģĦ": 7013,
      "ãĢıãĢģãĢİ": 7014,
      "Apple": 7015,
      "ç²§": 7016,
      "ç©ºæ°Ĺ": 7017,
      "å¤§æīĭ": 7018,
      "å¤§è¦ıæ¨¡": 7019,
      "å®¶ãģĮ": 7020,
      "ãĥŃãĥĥãĥĪ": 7021,
      "åŁºåľ°": 7022,
      "ãĤĮãģ¾ãģĻ": 7023,
      "ãĢħãģ®": 7024,
      "ãĥķãĥ¬ãĥ¼ãĥł": 7025,
      "è²·åıĸ": 7026,
      "ING": 7027,
      "è¤ĩéĽĳ": 7028,
      "ãĤĴçĽ®çļĦ": 7029,
      "æĿİ": 7030,
      "ãģ¨ãģĦãģĨæĦıåĳ³": 7031,
      "ãĢģ(": 7032,
      "æŃ£ç¢º": 7033,
      "ãģĦãģŁãģłãģĦãģŁ": 7034,
      "æķı": 7035,
      "åĲ¦å®ļ": 7036,
      "ĠãĢİ": 7037,
      "åĪ¥ãģ®": 7038,
      "ãĤĴãĤ¯ãĥªãĥĥãĤ¯": 7039,
      "æľ¬å¡ģæīĵ": 7040,
      "ãĤªãĥ¼ãĥĩãĤ£": 7041,
      "ãĤ·ãĥĬ": 7042,
      "å¾Ģ": 7043,
      "çĪ¶è¦ª": 7044,
      "åħ¥ãĤĮãĤĭ": 7045,
      "åĽŀçĽ®": 7046,
      "å¹ķåºľ": 7047,
      "ãģ«ãģ¤ãģªãģĮ": 7048,
      "ãĥĹãĥŃãĤ°ãĥ©ãĥŁãĥ³ãĤ°": 7049,
      "äºĭéłħ": 7050,
      "ãģłãģĹ": 7051,
      "eg": 7052,
      "æĻĤçĤ¹ãģ§": 7053,
      "ç«¯æľ«": 7054,
      "çŁ¥ãĤīãĤĮãģ¦ãģĦãĤĭ": 7055,
      "ãĤĴæĬĳ": 7056,
      "ãģ¿ãģĮ": 7057,
      "æµ·å²¸": 7058,
      "ãģ®èº": 7059,
      "å¤§éĻ¸": 7060,
      "ãģ©ãģ®ãĤĪãģĨãģ«": 7061,
      "ãĤ¨ãĥ©": 7062,
      "ä½ķãĤĤ": 7063,
      "ç·ļãģ®": 7064,
      "ãĥ¯ãĤ·": 7065,
      "åĽŀçŃĶ": 7066,
      "ãģªãģĮãĤīãĤĤ": 7067,
      "æīĢãģ§": 7068,
      "è»įãģĮ": 7069,
      "ãĤµãĤ¦ãĥ³ãĥī": 7070,
      "æīĭæ³ķ": 7071,
      "æĭ¡å¼µ": 7072,
      "ãĤ³ãĤ¹": 7073,
      "ãĤıãģļãģĭ": 7074,
      "ä»£è¡¨åıĸç·łå½¹": 7075,
      "åĳ¨åĽ²": 7076,
      "ãģĿãģĵãģ«": 7077,
      "ãģ«ä½¿çĶ¨": 7078,
      "ä»ĸãģ«ãĤĤ": 7079,
      "æľĪæľ«": 7080,
      "åħĲå³¶": 7081,
      "è¦ģæľĽ": 7082,
      "éº¦": 7083,
      "ä¸Ńèı¯": 7084,
      "åıĪãģ¯": 7085,
      "ãĥ¨ãĤ¬": 7086,
      "æīĭæ®µ": 7087,
      "ãĥĸãĥ©ãĤ¤": 7088,
      "ãģĹãĤĤ": 7089,
      "ãģĵãĤĮãģ«": 7090,
      "ãģ®åľ°åŁŁ": 7091,
      "ãĤ¸ãĥ¥ãĤ¢ãĥ«": 7092,
      "è¦ĭãĤĭ": 7093,
      "ãĤĴæĮ¯": 7094,
      "1945": 7095,
      "½åŁ¹": 7096,
      "æ°ĹåĪĨ": 7097,
      "çķ°ãģªãĤĬ": 7098,
      "äºĮäºº": 7099,
      "èµ·çĶ¨": 7100,
      "ãĤĴãĥªãĥªãĥ¼ãĤ¹": 7101,
      "æĺİãĤīãģĭ": 7102,
      "ãģ®åİŁåĽł": 7103,
      "åĪĨãģĭãĤĬ": 7104,
      "ĠJapan": 7105,
      "TS": 7106,
      "ck": 7107,
      "ãģĻãĤĭãĤĪãģĨãģ«": 7108,
      "ç¢ºèªįãģıãģłãģķãģĦ": 7109,
      "ãĥŀãĥŀ": 7110,
      "ãģ®äººæ°Ĺ": 7111,
      "å½ĵåºĹ": 7112,
      "èĩŃ": 7113,
      "ãĤ¼ãĥŃ": 7114,
      "æĺĮ": 7115,
      "è³¢": 7116,
      "æ¥½å¤©": 7117,
      "å®Łè·µ": 7118,
      "çĶ·å¥³": 7119,
      "å½ĵéģ¸": 7120,
      "ãĥĻãĥ¼ãĥĪ": 7121,
      "åĲĪãĤıãģĽãģŁ": 7122,
      "æµģè¡Į": 7123,
      "ãģĹãģŁãģ¨": 7124,
      "å¤§éĺªåºľ": 7125,
      "!ãĢı": 7126,
      "CO": 7127,
      "ãĤªãĥ¼ãĥĪ": 7128,
      "çĶŁåĳ½": 7129,
      "æ§ĭç¯ī": 7130,
      "æīĢåľ¨": 7131,
      "å¿ľåĭŁ": 7132,
      "ãĤ¸ãĥ£ãĥ³ãĥ«": 7133,
      "ãĥĭãĤ¹": 7134,
      "CE": 7135,
      "amp": 7136,
      "ä»»åĭĻ": 7137,
      "ç´Ģåħĥåīį": 7138,
      "åħµåº«": 7139,
      "%ãĢģ": 7140,
      "å¹¾": 7141,
      "MA": 7142,
      "ãĥĻãĥĪãĥĬãĥł": 7143,
      "ign": 7144,
      "éĢ¸": 7145,
      "å§¿åĭ¢": 7146,
      "ãģ®çĬ¶æ³ģ": 7147,
      "ä¸Ńåı¤": 7148,
      "ãģĻãģĮ": 7149,
      "ä¸Ńãģ§ãĤĤ": 7150,
      "å½ĵæĻĤãģ¯": 7151,
      "ãĥ¬ãĥ³ãĤ¿ãĥ«": 7152,
      "ãĤīãģĪãĤĭ": 7153,
      "èıĵåŃĲ": 7154,
      "ãĥŃãĥ³ãĥīãĥ³": 7155,
      "ãĤ¨ãĥ³ãĥĪ": 7156,
      "ãĥĳãĥ¼ãĤ½": 7157,
      "ãĥ«ãĥ¼ãĥł": 7158,
      "åĩºä¼ļ": 7159,
      "é¼»": 7160,
      "ãģ®æıĲ": 7161,
      "ãģĬå¾ħãģ¡": 7162,
      "ãĥ¼ãĤ¸ãĤ§": 7163,
      "æĸ¹ãģ®": 7164,
      "ãģ¨åĳ¼ãģ¶": 7165,
      "ãģĤãĤĬãģ¾ãģĻãģĮ": 7166,
      "ãģ®æĶ¾éĢģ": 7167,
      "äººãģŁãģ¡": 7168,
      "å¿ħéłĪ": 7169,
      "çī©ä»¶": 7170,
      "ood": 7171,
      "ãĤ¯ãĥªãĤ¹ãĥŀãĤ¹": 7172,
      "ãģ¡ãĤĩãģĨ": 7173,
      "ãģłãĤįãģĨãģĭ": 7174,
      "ãģ®æ°ĳ": 7175,
      "ãĤ¯ãĤ¿": 7176,
      "åĨħéĥ¨": 7177,
      "è¼¸åħ¥": 7178,
      "ãģ¨æĢĿãģ£ãģ¦": 7179,
      "jg": 7180,
      "ãģ«ãģ¨ãģ£ãģ¦ãģ¯": 7181,
      "Â·": 7182,
      "ðŁĺ": 7183,
      "å§ĭãĤģãĤĭ": 7184,
      "ãģĮéĽĨ": 7185,
      "çĶ¨éĢĶ": 7186,
      "DS": 7187,
      "éĥ¨åĵģ": 7188,
      "ãĥĵãĥ³ãĤ°": 7189,
      "æĶ¹æŃ£": 7190,
      "ãģ®æ³¨": 7191,
      "åīįåįĬ": 7192,
      "ãĤ«ãĥªãĥķãĤ©ãĥ«ãĥĭãĤ¢": 7193,
      "ãĤĴè¸ı": 7194,
      "èĢħãģ§ãģĤãĤĭ": 7195,
      "èµ·åĭķ": 7196,
      "æĸľ": 7197,
      "ext": 7198,
      "ãĤĴè¡¨ç¤º": 7199,
      "ä¸Ģå®ļ": 7200,
      "ãģ«æ¸¡": 7201,
      ")ãĢı": 7202,
      "ãĤĴçµĤ": 7203,
      "ãĥ¼ãĤ·ãĥ£ãĥ«": 7204,
      "ãģ®ä½¿çĶ¨": 7205,
      "68": 7206,
      "ãĥĹãĥŃãĥĢ": 7207,
      "ong": 7208,
      "ãģĮãģĤãĤĬãģ¾ãģĹãģŁ": 7209,
      "ãĥ¼ãĤ¯ãĤ¹": 7210,
      "ãģ®åĲįç§°": 7211,
      "ãģĹãĤĦãģĻãģĦ": 7212,
      "Th": 7213,
      "åįĵ": 7214,
      "é«ĺåº¦": 7215,
      "åĪĬè¡Į": 7216,
      "ION": 7217,
      "æīĢæľī": 7218,
      "å¾ĮãĤĤ": 7219,
      "éķ·å®ĺ": 7220,
      "æ¥½åĻ¨": 7221,
      "æŁ±": 7222,
      "ãģ®åĢĭäºº": 7223,
      "é§ĨéĢĲ": 7224,
      "ãĥ©ãĤ¤ãĤ¿ãĥ¼": 7225,
      "ãģ¨ãģĵãĤįãģ§": 7226,
      "ãĥ¼ãĥ¯ãĥ¼ãĥī": 7227,
      "ãĥ¼ãĥģãĥ£": 7228,
      "èľ": 7229,
      "å¹´ãģ§": 7230,
      "ãģ®çĽ®": 7231,
      "ãģ®æ¯į": 7232,
      "ãģĻãĤĭãĤĪãģĨ": 7233,
      "æİ§": 7234,
      "ãĤĴæĭħ": 7235,
      "ãĥľãĥĥãĤ¯ãĤ¹": 7236,
      "ãģ®æŀ": 7237,
      "å»¶éķ·": 7238,
      "ãĥ¡ãĥĢãĥ«": 7239,
      "ãĥģãĥ£ãĥ¼ãĥĪ": 7240,
      "è¦ĭãģĪãĤĭ": 7241,
      "æĹ¦": 7242,
      "120": 7243,
      "´ä»»": 7244,
      "èĤ²æĪĲ": 7245,
      "å®ľ": 7246,
      "ãĤıãģ¡": 7247,
      "ãģĿãģ®å¾ĮãĤĤ": 7248,
      "èĢĥæħ®": 7249,
      "ä¸Ńãģ«ãģ¯": 7250,
      "ãĤĴæĥ": 7251,
      "ä»Ĭãģ¯": 7252,
      "ãģªãĤĵãģĭ": 7253,
      "ãĥĹãĥŃãĥ¬ãĤ¹": 7254,
      "åīįå¾Į": 7255,
      "1984": 7256,
      "âľ": 7257,
      "ãĥĽãĤ¤": 7258,
      "å¢³": 7259,
      "ãģ«ãģĤãģŁ": 7260,
      "ãģ®ãĤ¢ãĤ¯": 7261,
      "ãĥ¬ãĥĩãĤ£": 7262,
      "ãĤ¯ãĥªãĤ¨ãĤ¤": 7263,
      "çŃĴ": 7264,
      "ãĥľãĥ«": 7265,
      "éĢ²è¡Į": 7266,
      "ĠãĢģ": 7267,
      "çĤ¹ãģ«": 7268,
      "ãģ¨åĲĮæĻĤãģ«": 7269,
      "ãģĮãģĶãģĸãģĦãģ¾ãģĻ": 7270,
      "ä»¥å¤ĸãģ®": 7271,
      "æĪ¦ãģ§ãģ¯": 7272,
      "ãģĻãĤĭãģ®ãģĮ": 7273,
      "ãĥ¯ãĥ³": 7274,
      "æŃ£ãģĹãģĦ": 7275,
      "æĮĩåĲį": 7276,
      "èª°ãĤĤ": 7277,
      "ãĥ©ãĥªãĥ¼": 7278,
      "ian": 7279,
      "æĶ¯æīķ": 7280,
      "ãĤ¿ãĤ¤ãĥŁãĥ³ãĤ°": 7281,
      "ä¿¡åı·": 7282,
      "ãģ¾ãģĽãĤĵãģ§ãģĹãģŁ": 7283,
      "ãĥĵãĥĥãĤ°": 7284,
      "ãģ®è¬Ľ": 7285,
      "ãĥĹãĥŃãĤ»ãĤ¹": 7286,
      "ãĤĴéĸĭå§ĭãģĹãģŁ": 7287,
      "ãģ¯ãĤĤãģ¡ãĤįãĤĵ": 7288,
      "éľĩçģ½": 7289,
      "Ġãĥ»": 7290,
      "ãģĮå¿ħè¦ģãģ§ãģĻ": 7291,
      "ãģĪãĤīãĤĮ": 7292,
      "éłħçĽ®": 7293,
      "ãĥ¢ãĥĭ": 7294,
      "ãģĮãģ§ãģį": 7295,
      "ond": 7296,
      "çĽ´ãģĹ": 7297,
      "ãģ¤ãģªãģĮ": 7298,
      "!(": 7299,
      "ä»®æĥ³": 7300,
      "ãĤŃãĤ·ãĤ³": 7301,
      "æĻĤéĸĵãģ¯": 7302,
      "ãĤ¯ãĥ¼ãĥ«": 7303,
      "ãĤµãĥ«": 7304,
      "å¤§äºĭ": 7305,
      "ãģªãģĭãģ£ãģŁãģĮ": 7306,
      "ç¦ıç¥ī": 7307,
      "ãģ¾ãģ¡": 7308,
      "ãĤŃãĥªãĤ¹ãĥĪæķĻ": 7309,
      "ãĤŃãĥĥãĥģ": 7310,
      "aw": 7311,
      "ç¬ĳé¡Ķ": 7312,
      "ãĥĻãĥ¼ãĤ·ãĥ§ãĥ³": 7313,
      "Ġãĥª": 7314,
      "ory": 7315,
      "ãĤĴç¶ļãģĳ": 7316,
      "ãĤµãĥĸ": 7317,
      "éĺªç¥ŀ": 7318,
      "æĮ¯ãĤĬ": 7319,
      "ãĤ¹ãĤ¿ãĥ³": 7320,
      "ãģ¿ãģŁãģĦãģª": 7321,
      "éĮ²éŁ³": 7322,
      "ãĥĹãĥ¬ãĤ¹": 7323,
      "ä¸įè¦ģ": 7324,
      "ãģĹãģŁãģ¨ãģĦãģĨ": 7325,
      "éĩıãģ¯": 7326,
      "ãĥ¬ãĥĥãĤ¸": 7327,
      "ãģĦãģĭãģĮ": 7328,
      "éĤ¸": 7329,
      "ãģĻãģªãĤıãģ¡": 7330,
      "å½°": 7331,
      "~~": 7332,
      "WEB": 7333,
      "åĬłåħ¥": 7334,
      "ĠæĹ¥æľ¬": 7335,
      "ãĥĪãĥł": 7336,
      "èĭ±åĽ½": 7337,
      "éļĽãģ«ãģ¯": 7338,
      "ãĥĨãĤ£ãĥĥãĤ¯": 7339,
      "ãģ®ãģĬçŁ¥ãĤīãģĽ": 7340,
      "ãģĮãģĤãĤĮãģ°": 7341,
      "ãĤ¢ãĤ¤ãĥĩãĤ¢": 7342,
      "ãĤĴçĶ¨ãģĦãģ¦": 7343,
      "âĸ¡": 7344,
      "ä¸ĩãĥīãĥ«": 7345,
      "èħ¸": 7346,
      "ãģ®èī¯ãģĦ": 7347,
      "åĨĴ": 7348,
      "ãģŁãģªãģĦ": 7349,
      "éģĵåħ·": 7350,
      "ãĤ·ãĥ§ãĥ¼ãĥĪ": 7351,
      "åĮ»åŃ¦": 7352,
      "éĭ¼": 7353,
      "ãģ¾ãģłãģ¾ãģł": 7354,
      "ãģķãĤĮãģ¦ãģĦãģŁãģĮ": 7355,
      "ãĤ¸ãĥ¥ãĥĭãĤ¢": 7356,
      "ãģĹãģ¦ãģĦãģ¾ãģĹãģŁ": 7357,
      "åħ¬åħ±": 7358,
      "çĻºä¿¡": 7359,
      "ç³»åĪĹ": 7360,
      "1983": 7361,
      "Ġbe": 7362,
      "ç¶ļãģĳãģ¦": 7363,
      "çĽ¸äºĴ": 7364,
      "ãĤ½ãĥªãĥ¥": 7365,
      "ä¸ŃåŃ¦": 7366,
      "CH": 7367,
      "ãĤĴé«ĺ": 7368,
      "ãģĩ": 7369,
      "âĨĴ": 7370,
      "å¤§åĪĩãģª": 7371,
      "ãĥīãĤŃãĥ¥": 7372,
      "ä¸ĢèĪ¬çļĦãģª": 7373,
      "ãĥģãĥ§ãĤ³": 7374,
      "¡å¤§": 7375,
      "è§£æķ£": 7376,
      "Android": 7377,
      "æ·±ãģı": 7378,
      "ãĥĪãĥ©ãĤ¤": 7379,
      "èĢħãĤĤ": 7380,
      "åħ¨æĹ¥æľ¬": 7381,
      "ãĥ³ãĤ·ãĥ§": 7382,
      "ãģ®å¼ķ": 7383,
      "å¤ĸéĥ¨": 7384,
      "æĹ©ãģĦ": 7385,
      "ãģ®ä¸ŃãģĭãĤī": 7386,
      "éĸĵãģ¯": 7387,
      "ãģ®æĻĤãģ«": 7388,
      "åİŁåīĩ": 7389,
      "ãģ®çĭ¬": 7390,
      "æ±ŁæĪ¸æĻĤä»£": 7391,
      "ãĤĴãģĤ": 7392,
      "ãģĵãģ®ãĤĪãģĨãģ«": 7393,
      "çļĦãģ§": 7394,
      "ãĤŃãĥ¼ãĥ¯ãĥ¼ãĥī": 7395,
      "åħ¨éĥ¨": 7396,
      "ãģ¨æĢĿãĤıãĤĮãĤĭ": 7397,
      "éĬŃ": 7398,
      "ãģ®ãĤ¹": 7399,
      "ãĥ³ãĤ¦": 7400,
      "ãĤģãģĲ": 7401,
      "ãģ«åĬłãģĪ": 7402,
      "è¥¿éĥ¨": 7403,
      "åŃ¦ãģ³": 7404,
      "ãĤ¹ãĤŃãĥ¼": 7405,
      "ãĥŀãĥ¼": 7406,
      "ãĥķãĥŃãĥ³ãĥĪ": 7407,
      "é¹¿åħĲå³¶": 7408,
      "æ»ŀåľ¨": 7409,
      "èģ·åĵ¡": 7410,
      "é§Ĳè»Ĭåł´": 7411,
      "ï¸ı": 7412,
      "éĢļè²©": 7413,
      "ãģ«æķĹ": 7414,
      "ãģ®äººãĢħ": 7415,
      "af": 7416,
      "ich": 7417,
      "ĵį": 7418,
      "æľŁãģ®": 7419,
      "ãĤ¬ãĥ³": 7420,
      "çĤ¹ãģ¯": 7421,
      "çĸ¾": 7422,
      "çģ½å®³": 7423,
      "éŃĶæ³ķ": 7424,
      "ãģ«ç§»ç±į": 7425,
      "æľŁéĻĲ": 7426,
      "ãģĵãĤĮãģ§": 7427,
      "ãģĪãģ¦ãģĦãģŁ": 7428,
      "åİŁåŃĲ": 7429,
      "ux": 7430,
      "ãĤĴæĮģãģ£ãģŁ": 7431,
      "ãģ¨åĲĮæ§ĺãģ«": 7432,
      "¿æĺĵ": 7433,
      "å¡ŀ": 7434,
      "ãĤĨãģ£ãģıãĤĬ": 7435,
      "éĸ¢æķ°": 7436,
      "ãĤ³ãĥ³ãĤ»ãĥĹãĥĪ": 7437,
      "é§Ħ": 7438,
      "ãĥ©ãĤ¤ãĤ»ãĥ³ãĤ¹": 7439,
      "ãģ®åĳ½": 7440,
      "è²§": 7441,
      "ãģĤãģªãģŁãģĮ": 7442,
      "ãģĹãģ¿": 7443,
      "åĬ±": 7444,
      "éľĢè¦ģ": 7445,
      "åħĪæĹ¥": 7446,
      "ãĥ¼ãĥ¤": 7447,
      "ãĤ«ãĥ¼ãĥ«": 7448,
      "å®¶ãģ«": 7449,
      "åº¦ãģĮ": 7450,
      "ãĤĤãģ¨ãĤĤ": 7451,
      "ãĤĴéĩįãģŃ": 7452,
      "ãĥŁãĤµ": 7453,
      "åĪĿåĽŀ": 7454,
      "å¤īãĤıãĤĭ": 7455,
      "ä½ľãģ£ãģŁ": 7456,
      "ãģķãĤĮãģ¦ãģĦ": 7457,
      "çľĮéģĵ": 7458,
      "çĤ¹ãģĭãĤī": 7459,
      "ãģĵãģĨãģĦãģĨ": 7460,
      "ãĥŃãĤ´": 7461,
      "åĲĪè¨Ī": 7462,
      "é§Ĵ": 7463,
      "ãģ§ãģĶ": 7464,
      "ãģ®èº«": 7465,
      "åĲ«ãģ¾ãĤĮãĤĭ": 7466,
      "ä½ķåº¦ãĤĤ": 7467,
      "åıİç´į": 7468,
      "ãĤĦãĤĦ": 7469,
      "ãĥ¼ãĥ©ãĥ¼": 7470,
      "ãĤĴæĶ¯æı´": 7471,
      "ãģĿãĤĤãģĿãĤĤ": 7472,
      "ãģ§ãģĤãĤįãģĨ": 7473,
      "æĩ¸": 7474,
      "ä¼Ĭåĭ¢": 7475,
      "ãĥ¼ãĤŃãĥ³ãĤ°": 7476,
      "åħĥæ°Ĺ": 7477,
      "NE": 7478,
      "çįĦ": 7479,
      "ãģĭãģĭãĤıãĤīãģļ": 7480,
      "ç¥Ī": 7481,
      "æĸī": 7482,
      "ãĤĴç¤ºãģĻ": 7483,
      "å½¼ãģ®": 7484,
      "åĦªåħĪ": 7485,
      "ãĥ¼ãĥĮ": 7486,
      "ãģĻãĤĭãģŁãĤģãģ®": 7487,
      "ãģĮãģª": 7488,
      "ãĥ©ãĥ³ãĥģ": 7489,
      "å½ĵæĹ¥": 7490,
      "ãĤ¯ãĥ¼ãĥĿ": 7491,
      "ãģ®çķªçµĦ": 7492,
      "DI": 7493,
      "ãĥĶãĥĥãĤ¯": 7494,
      "ock": 7495,
      "æ³£": 7496,
      "ãģ®çķ°": 7497,
      "æĽ¸ãģĦãģ¦": 7498,
      "å½¹ãģ«": 7499,
      "éĥ½åĲĪ": 7500,
      "äº¤å·®": 7501,
      "ãĤ¢ãĤ¹": 7502,
      "ãģ®å£²": 7503,
      "ãĥĿãĥĥãĥĹ": 7504,
      "éģ©åĪĩãģª": 7505,
      "éģŃ": 7506,
      "åľ¨ä½ı": 7507,
      "é·": 7508,
      "å£²åį´": 7509,
      "ãģ¸åĲĳ": 7510,
      "ãĤ¸ãĥ£ãĥĳãĥ³": 7511,
      "ä½ĵèĤ²": 7512,
      "èĤ¥": 7513,
      "ãĤµãĤ¤ãĤ¯ãĥ«": 7514,
      "å¿ĥãģĮ": 7515,
      "æ¥Ńåĵ¡": 7516,
      "ãģ®å¤ľ": 7517,
      "ãģ®å°ĤéĸĢ": 7518,
      "ãģ®æĮĩå°İ": 7519,
      "ãģ®èĭ±": 7520,
      "ãĤĴæ°": 7521,
      "ãĤªãĥĹãĤ·ãĥ§ãĥ³": 7522,
      "HD": 7523,
      "ãģĻãģĶãģĦ": 7524,
      "åľ¨ç±į": 7525,
      "1982": 7526,
      "Ġk": 7527,
      "ãģ¤ãģĳãģŁ": 7528,
      "ãģ®å¯¾å¿ľ": 7529,
      "ç¥¥": 7530,
      "ãģ§ãģįãĤĭãĤĪãģĨ": 7531,
      "ãģĮæ±º": 7532,
      "ãģ®ãģ¾ãģ¾": 7533,
      "ãģ®æľī": 7534,
      "å¼¥": 7535,
      "èı±": 7536,
      "åħĥãĢħ": 7537,
      "AV": 7538,
      "éĩįãģª": 7539,
      "ãģ®è¨Ńå®ļ": 7540,
      "Ġpro": 7541,
      "åĤĺ": 7542,
      "uk": 7543,
      "ãĥ³ãĤª": 7544,
      "ãģ«ãģĭãģı": 7545,
      "ãģ®æºĸ": 7546,
      "ãģ®æŁ": 7547,
      "åĽ£æ³ķäºº": 7548,
      "ãĤĴè¨Ńç½®": 7549,
      "UE": 7550,
      "å±Ī": 7551,
      "åıİéĽĨ": 7552,
      "ãģ®åı¯èĥ½": 7553,
      "åı¯æĦĽãģĦ": 7554,
      "æ¬¡ãģ«": 7555,
      "ãģ®å¯¾è±¡": 7556,
      "ç¥ŀå¥Īå·ĿçľĮ": 7557,
      "çĬ¯ç½ª": 7558,
      "ç²Ĵ": 7559,
      "ãĥĢãĥ³": 7560,
      "ãĤ¸ãĥ£ãĤ±ãĥĥãĥĪ": 7561,
      "net": 7562,
      "ãĥĶãĥ³ãĤ¯": 7563,
      "ãģ®äºĮ": 7564,
      "èĩªä¿¡": 7565,
      "çµĮç·¯": 7566,
      "ĠãĤ³": 7567,
      "æīĭãĤĴ": 7568,
      "ãģ£ãģ¦ãģıãĤĭ": 7569,
      "ãĤĴæ±ĤãĤģãĤĭ": 7570,
      "ãĥŀãĤ¹ãĤ¯": 7571,
      "ãĤĴãģĶè¦§ãģıãģłãģķãģĦ": 7572,
      "åĪºæ¿Ģ": 7573,
      "æŃ³ãģ®": 7574,
      "ãĤīãģ£ãģĹãĤĥ": 7575,
      "62": 7576,
      "à¸": 7577,
      "åīµæ¥Ń": 7578,
      "ãĤ¸ãĥł": 7579,
      "æįľ": 7580,
      "åħĲç«¥": 7581,
      "ç¹Ĭ": 7582,
      "98": 7583,
      "ãģĦãģį": 7584,
      "ãĤĴãĤĤãģŁãĤī": 7585,
      "ãģ®èĥĮ": 7586,
      "åĬĽãģ§": 7587,
      "ãĥĩãĥ¼ãĤ¿ãĤĴ": 7588,
      "ãĤĤãģ®ãģ¨": 7589,
      "è¨¼åĪ¸": 7590,
      "ãģ®æ¬¡": 7591,
      "ãģ¨ãĤĤè¨Ģ": 7592,
      "éłŃãģ«": 7593,
      "ãĥ¬ãĥ³ãĥĪ": 7594,
      "ãģ¨ãģªãģ£ãģ¦ãģĬãĤĬ": 7595,
      "è¾¼ãģ¾ãĤĮ": 7596,
      "è¨ĺèĢħ": 7597,
      "åĪĨé¡ŀ": 7598,
      "ãģ®çŁ³": 7599,
      "å¾ĲãĢħãģ«": 7600,
      "æĬ±": 7601,
      "é¢¨æĻ¯": 7602,
      "ç¢ºå®ļ": 7603,
      "èĤ¢": 7604,
      "åıĸæĿĲ": 7605,
      "âĹİ": 7606,
      "ãĤĦãģĮãģ¦": 7607,
      "ãĤĴå¥ª": 7608,
      "ãĤīãģ¯": 7609,
      "æµ¸": 7610,
      "ãĥīãĥ©ãĤ¤ãĥĸ": 7611,
      "ä¼ĳæĹ¥": 7612,
      "çªģçĦ¶": 7613,
      "çµŀ": 7614,
      "IL": 7615,
      "ãĤ³ãĥ³ãĤµãĥ¼ãĥĪ": 7616,
      "åµ": 7617,
      "ä¸ĬãģĴãģ¦": 7618,
      "æľĪãĤĪãĤĬ": 7619,
      "ä¿ĥéĢ²": 7620,
      "ãģĶäºĨæī¿ãģıãģłãģķãģĦ": 7621,
      "ãģ¨åĲį": 7622,
      "Sh": 7623,
      "ãģ®åıĤåĬł": 7624,
      "ãĥĻãĤ¤": 7625,
      "çĻĤæ³ķ": 7626,
      "1972": 7627,
      "ãģ¿ãģ¦": 7628,
      "çı¾è±¡": 7629,
      "è«ĸæĸĩ": 7630,
      "MC": 7631,
      "åģ´ãģ¯": 7632,
      "çī©ãģ®": 7633,
      "éĽĨåĲĪ": 7634,
      "é«ĺç´ļ": 7635,
      "è±Ĭãģĭãģª": 7636,
      "åĪĨãģ«": 7637,
      "ãģ®åıĭ": 7638,
      "ãģĦãģĪ": 7639,
      "ãģ¡ãĤĥãĤĵãģ¨": 7640,
      "åĭĻçľģ": 7641,
      "ä¸ŃæĿĳ": 7642,
      "é§ħãģĭãĤī": 7643,
      "ãĥĩãĤ£ãĤ¹": 7644,
      "æĸ°åŀĭãĤ³ãĥŃãĥĬ": 7645,
      "çı¾åľ¨ãģ§ãģ¯": 7646,
      "ãģĿãģ®çµĲæŀľ": 7647,
      "ä½ĵéĩį": 7648,
      "ãĤ¹ãĤ¿ãĤ¤": 7649,
      "ens": 7650,
      "åĦªãĤĮãģŁ": 7651,
      "ãģĭãĤĮãģ¦": 7652,
      "åīįä½ľ": 7653,
      "çĹħæ°Ĺ": 7654,
      "ãĤĴè¨ĺéĮ²ãģĹãģŁ": 7655,
      "ä¸ĬãģĮãĤĭ": 7656,
      "æŃ¢ãĤģ": 7657,
      "ãģ«ãĤĤãģĭãģĭãĤıãĤīãģļ": 7658,
      "PG": 7659,
      "ãģ®è¿½": 7660,
      "åıĹä¿¡": 7661,
      "ãģ®ä¸Ńãģ«ãģ¯": 7662,
      "ãģ®çĤ¹": 7663,
      "ãĤĴãģĹãģ¦ãģĦãģŁ": 7664,
      "ãĤĴæİ²è¼ī": 7665,
      "éİĮåĢī": 7666,
      "æĸ½è¡ĵ": 7667,
      "ãĥ«ãģĮ": 7668,
      "éįµ": 7669,
      "ç©Ĥ": 7670,
      "ãĤĴéĸĭçĻº": 7671,
      "æŃĵ": 7672,
      "åĽŀãĤĬ": 7673,
      "çĸĳåķı": 7674,
      "cc": 7675,
      "ãģĳãģ¾ãģĻ": 7676,
      "èªįçŁ¥": 7677,
      "ãģĹãģ®": 7678,
      "éĩıãģĮ": 7679,
      "ons": 7680,
      "PO": 7681,
      "å¹ħåºĥãģĦ": 7682,
      "çµ±æ²»": 7683,
      "åŀĭãģ®": 7684,
      "ãģłãģĳãģ§ãģ¯ãģªãģı": 7685,
      "Ġe": 7686,
      "ime": 7687,
      "No": 7688,
      "IA": 7689,
      "ãģ®å¾©": 7690,
      "åŁİçľĮ": 7691,
      "ãĥĥãģ¨": 7692,
      "ä¸Ĭæīĭ": 7693,
      "å½¼ãģĮ": 7694,
      "ãģĹãģ¤ãģ¤": 7695,
      "èĲ½ãģ¡çĿĢ": 7696,
      "63": 7697,
      "ãĥĹãĥ«": 7698,
      "åĪĨéĽ¢": 7699,
      "æĬ½": 7700,
      "åīįè¿°": 7701,
      "95": 7702,
      "ãģªãģ©ãģ¨": 7703,
      "ãĥ©ãĥ³ãĤ¯": 7704,
      "æĻ®åıĬ": 7705,
      "æīĭè¡ĵ": 7706,
      "ãģ®åīįãģ«": 7707,
      "ãģ§ãģįãĤĭãĤĪãģĨãģ«": 7708,
      "ãģ¾ãģķãģ«": 7709,
      "ãģ®æĿ¡": 7710,
      "ãģ¨æĶ¹": 7711,
      "è¬Ľæ¼Ķ": 7712,
      "ãĥĳãĤ¹ãĥ¯ãĥ¼ãĥī": 7713,
      "âī": 7714,
      "ãģ®æľĢæĸ°": 7715,
      "ãĥĳãĥĥãĤ¯": 7716,
      "ä»ĸãģ«": 7717,
      "1979": 7718,
      "ãģĬæ°Ĺè»½": 7719,
      "ä¸ĸãģ¯": 7720,
      "èĦļæľ¬": 7721,
      "67": 7722,
      "éģºçĶ£": 7723,
      "ãģ®ãģ¨": 7724,
      "ãĥĩãĤ£ãĥ¬ãĤ¯": 7725,
      "æľĢçµĤçļĦãģ«": 7726,
      "ãģ®æĤª": 7727,
      "ãĤ´ãĥ¼ãĥ«ãĥī": 7728,
      "ãģ¨ãģĦãģĨè¨Ģèĳī": 7729,
      "åľ§åĢĴ": 7730,
      "ãĥľãĤ¯": 7731,
      "ãĥªãĥ©": 7732,
      "ãĥ³ãĥĨãĤ£ãĤ¢": 7733,
      "»¿": 7734,
      "ãĤıãĤĮãģ¦ãģĦãģ¾ãģĻ": 7735,
      "çľĭèŃ·": 7736,
      "åģ´ãģ®": 7737,
      "åħĪçĻº": 7738,
      "ãģĵãģ¨ãģ§ãģĻ": 7739,
      "ï»¿": 7740,
      "ãģ¨åĲĮæ§ĺ": 7741,
      "ç¦Ħ": 7742,
      "ãģĵãģĵãģ«": 7743,
      "ãĤĴå¾ĹãĤĭ": 7744,
      "ç·ļãģ§": 7745,
      "åĮĸç²§": 7746,
      "æģĴ": 7747,
      "ãĤıãģŁãģ£ãģ¦": 7748,
      "æīĭç¶ļãģį": 7749,
      "åĩºæĿ¥ãģ¾ãģĻ": 7750,
      "åĮĹéĥ¨": 7751,
      "ãģĹãģĮ": 7752,
      "é«ĺé½¢": 7753,
      "ãģĻãģĺ": 7754,
      "ãĤĴå°İåħ¥": 7755,
      "ãģ®åħ¬å¼ı": 7756,
      "Ġ15": 7757,
      "è²´æĹı": 7758,
      "ãĢģâĢľ": 7759,
      "ãģ«éģĶ": 7760,
      "ãĤĪãģĭãģ£ãģŁ": 7761,
      "åī²ãĤĬ": 7762,
      "ãĥ¡ãĥĩãĤ£": 7763,
      "ãģĤãģªãģŁãģ¯": 7764,
      "ãĥģãĥ©": 7765,
      "ç¾©åĭĻ": 7766,
      "å¸«åĽ£": 7767,
      "ãģĵãģĵãģ§ãģ¯": 7768,
      "1975": 7769,
      "ãĤ³ãĥ³ãĥĪãĥŃãĥ¼ãĥ«": 7770,
      "æ¬¡éĥİ": 7771,
      "ãģ¨ãģĦãģĦ": 7772,
      "çŁ¥äºĭ": 7773,
      "ãĤĴè¿½åĬł": 7774,
      "ãģ¾ãģ£ãģ¦ãģĦãĤĭ": 7775,
      "ãĥĿãĥ«ãĥĪ": 7776,
      "åł´éĿ¢": 7777,
      "éĸĵéģķ": 7778,
      "ä¼ĬèĹ¤": 7779,
      "ãĢĳãĢĲ": 7780,
      "ps": 7781,
      "æ¬¡åĽŀ": 7782,
      "ãĤ·ãĤ«": 7783,
      "æĦıå¤ĸ": 7784,
      "éĩĳãĤĴ": 7785,
      "Ġ+": 7786,
      "Facebook": 7787,
      "ãģ®æ¡": 7788,
      "æĿ¥åºĹ": 7789,
      "ãĥ¼ãĥĽ": 7790,
      "å®¹æĺĵ": 7791,
      "ãĤ¬ãĥ³ãĥĢ": 7792,
      "ä¾¯": 7793,
      "ãĤĴãĤĦ": 7794,
      "ç«¶èµ°": 7795,
      "ãĤĴå¤īæĽ´": 7796,
      "è»Ĵ": 7797,
      "ãģĵãģ¨ãģ¨ãģªãģ£ãģŁ": 7798,
      "æķĻãģĪãģ¦": 7799,
      "å±±çĶ°": 7800,
      "ãĤ°ãĥ©ãĥł": 7801,
      "ãģĹãģ£ãģĭãĤĬãģ¨": 7802,
      "å¹´ä»¥ä¸Ĭ": 7803,
      "ãĥĹãĥ¼ãĥ«": 7804,
      "æ£Ĵ": 7805,
      "ãģ®å¥½": 7806,
      "åĪĿå¿ĥèĢħ": 7807,
      "ãĥŁãĥĥãĤ¯": 7808,
      "ãĤĴãģĶåĪ©çĶ¨": 7809,
      "å¤§ä¸Īå¤«": 7810,
      "ãģ½": 7811,
      "ãĤ·ãĥ§ãĥĥãĥĶãĥ³ãĤ°": 7812,
      "æĢĿèŃ°": 7813,
      "ãģ®åįĶ": 7814,
      "GB": 7815,
      "ç´ĭ": 7816,
      "è¨Ńç«ĭãģķãĤĮãģŁ": 7817,
      "ãĤ¯ãĥ©ãĤ¤ãĤ¢ãĥ³ãĥĪ": 7818,
      "ãģ®éĢļãĤĬ": 7819,
      "ãģ®æ¦Ĥ": 7820,
      "äººå·¥": 7821,
      "ãĥıãĥł": 7822,
      "ãģ®éļĽãģ«": 7823,
      "ãĥĩãĥ¢": 7824,
      "ãģ§ãģĤãĤĭãģĵãģ¨ãĤĴ": 7825,
      "æıĽãģĪ": 7826,
      "çĶ¨ãģ«": 7827,
      "ãģ®æķ´": 7828,
      "ãģ£ãģ¦ãģ¯": 7829,
      "çī¹åħ¸": 7830,
      "Ġ17": 7831,
      "ãģ¾ãģ¨ãĤģãģ¦": 7832,
      "az": 7833,
      "éĺľ": 7834,
      "æľĢä½İ": 7835,
      "ãĥķãĤ£ãĥ«ãĥł": 7836,
      "è¡ĽéļĬ": 7837,
      "ä¾ĿåŃĺ": 7838,
      "ãĤµãĥĥãĤ«": 7839,
      "ãģ®å·®": 7840,
      "èµ°è¡Į": 7841,
      "ãĥŃãĥľãĥĥãĥĪ": 7842,
      "ãģĿãĤĮãģ¾ãģ§": 7843,
      "ãĥľãĤ¿": 7844,
      "ãĤ¦ãĥĪ": 7845,
      "ãģ®ãģĵãģ¨ãĤĴ": 7846,
      "ãģĻãĤī": 7847,
      "Sp": 7848,
      "ãĤ³ãĤ¢": 7849,
      "åĳ½ä»¤": 7850,
      "61": 7851,
      "åĥķãģ¯": 7852,
      "ãĥ¡ãĤ¬": 7853,
      "éļ£æİ¥": 7854,
      "ãĤĴéĢĢ": 7855,
      "1973": 7856,
      "è¡°": 7857,
      "åĩį": 7858,
      "ãģ®ç²¾": 7859,
      "ãĥ¡ãĥ¼ãĤ«": 7860,
      "ãģıãģ«": 7861,
      "æĻĤãģĭãĤī": 7862,
      "SH": 7863,
      "ãĥ¼ãĤ´": 7864,
      "ãģĵãģ¡ãĤīãģ¯": 7865,
      "ãģ®æģ¯åŃĲ": 7866,
      "SD": 7867,
      "æĦŁãģĮ": 7868,
      "è¦ģè«ĭ": 7869,
      "å¿ĺãĤĮ": 7870,
      "éŃĤ": 7871,
      "çŃĶãģĪ": 7872,
      "æīĭæķ°æĸĻ": 7873,
      "ç¤¾ãģĮ": 7874,
      "ãģ£ãģ¦ãģįãģ¾ãģĹãģŁ": 7875,
      "è¡ĨèŃ°éĻ¢": 7876,
      "è©±ãĤĴ": 7877,
      "ãģ«åŁºãģ¥ãģı": 7878,
      "ãĥĭãĥ¥ãĥ¼ãĤ¢ãĥ«": 7879,
      "ãĥ¬ãĥ³ãĤº": 7880,
      "éĢļç§°": 7881,
      "ãĤĴçµĲãģ¶": 7882,
      "ound": 7883,
      "ãģ®æŃ¦": 7884,
      "çĲĨæĥ³": 7885,
      "ãģªãģ®ãģ«": 7886,
      "Ġæĸ°": 7887,
      "ãģ®åı¤": 7888,
      "ãģ¨ãģ«ãģĭãģı": 7889,
      "1981": 7890,
      "ãĥ¼ãĥľãĥ¼ãĥī": 7891,
      "äºĭåīįãģ«": 7892,
      "å§ĵ": 7893,
      "å¼µãĤĬ": 7894,
      "è¦ıæł¼": 7895,
      "ãĤ¸ãĤ§ãĥĥãĥĪ": 7896,
      "ãĤĤãĤĵ": 7897,
      "è¥¿æ´ĭ": 7898,
      "åĲīçĶ°": 7899,
      "åįĺç´Ķ": 7900,
      "ãģ¾ãģĽãĤĵãģĮ": 7901,
      "ãģĭãģ¯": 7902,
      "ãĤ¢ãĥĬãĤ¦": 7903,
      "ãĥĳãĤ¿ãĥ¼ãĥ³": 7904,
      "éĢ²åĮĸ": 7905,
      "åĩºåĬĽ": 7906,
      "ç´ĦæĿŁ": 7907,
      "ãĤĴæµģ": 7908,
      "è¡ĿæĴĥ": 7909,
      "YouTube": 7910,
      "èĸ¦": 7911,
      "èª¿éģĶ": 7912,
      "ãĤ¹ãĥĪãĥŃ": 7913,
      "ĠSh": 7914,
      "ç¹°ãĤĬ": 7915,
      "ãģĮä¸»": 7916,
      "åĲĮæ§ĺãģ«": 7917,
      "ãĤ¢ãĤ¤ãĤ¹": 7918,
      "BM": 7919,
      "éĺ»": 7920,
      "åħ¥ãĤĮãģŁ": 7921,
      "èĵĦ": 7922,
      "ãĥ»ãĥ»ãĥ»ãĢĤ": 7923,
      "ä¼ļãģ¯": 7924,
      "ãģĹãģĭãģªãģĦ": 7925,
      "ãĤĴè¡ĮãģĦãģ¾ãģĻ": 7926,
      "ãģ«åıĸãĤĬçµĦ": 7927,
      "è½Ħ": 7928,
      "ech": 7929,
      "ãģ®åĥ": 7930,
      "åįĹåĮĹ": 7931,
      "ĠZ": 7932,
      "ãģ®æİ¨": 7933,
      "å¸Ĥéķ·": 7934,
      "ãĤ»ãĥ³": 7935,
      "Ġde": 7936,
      "ãĤīãģĹãģı": 7937,
      "æ¼ı": 7938,
      "äººæ°Ĺãģ®": 7939,
      "è¦ģåĽł": 7940,
      "ãĤĴãģĶç´¹ä»ĭãģĹãģ¾ãģĻ": 7941,
      "ãĤĴåĤĻ": 7942,
      "ree": 7943,
      "æĬľãģĳ": 7944,
      "æ£Ł": 7945,
      "ãĥ³ãĥĮ": 7946,
      "ãĥĪãĤ¤ãĥ¬": 7947,
      "ä¼ļãģ§": 7948,
      "ãĤĴæ¥½ãģĹãĤĢ": 7949,
      "ãĤŃãĥ£ãĤ¹ãĥĪ": 7950,
      "åŃ¦ãģ¶": 7951,
      "GO": 7952,
      "ãĥģãĥ£ãĥ³ãĤ¹": 7953,
      "éħ¸åĮĸ": 7954,
      "åĪĩãĤĮ": 7955,
      "Ġat": 7956,
      "ãĤ¹ãĤ¿ãĥ³ãĥĪ": 7957,
      "èĨļ": 7958,
      "ãģ®æ£®": 7959,
      "))": 7960,
      "ãĥĨãĥŃ": 7961,
      "æĢ§æł¼": 7962,
      "åīµè¨Ń": 7963,
      "ãģªãģ®ãģ§ãģĻ": 7964,
      "ãĤĴçĻºè¦ĭ": 7965,
      "æģĭæĦĽ": 7966,
      "å¼¦": 7967,
      "éĢ£éļĬ": 7968,
      "ãģĵãģ®åł´": 7969,
      "ãĥģãĥ£ãĥ¼": 7970,
      "ãĤ¨ãĥĶãĤ½ãĥ¼ãĥī": 7971,
      "ãģ¨ãģ£ãģ¦ãĤĤ": 7972,
      "EM": 7973,
      "éĻįãĤĬ": 7974,
      "ãĤ¢ãĥ¬ãĥ³ãĤ¸": 7975,
      "å³°": 7976,
      "1978": 7977,
      "åĺī": 7978,
      "ãģĬçŁ¥ãĤīãģĽ": 7979,
      "ä¿ĿèĤ²": 7980,
      "ãĤĴä¸»": 7981,
      "ãĤ½ãĥ³ãĤ°": 7982,
      "ãĥŃãĤµ": 7983,
      "Ġ2017": 7984,
      "ãģ®éĸĭ": 7985,
      "Ĭæı¡": 7986,
      "èķ": 7987,
      "å¤§ä½¿": 7988,
      "å£ĩ": 7989,
      "å¤ĸåĽ½äºº": 7990,
      "ãģĳãĤĵ": 7991,
      "éħ·": 7992,
      "çİĩãģĦãĤĭ": 7993,
      "ç¿Įå¹´": 7994,
      "åĪ¤æĺİ": 7995,
      "æ¨©åĪ©": 7996,
      "1971": 7997,
      "ãĤĴä½¿çĶ¨ãģĹãģ¦": 7998,
      "çĭĤ": 7999,
      "æ®ĭå¿µ": 8000,
      "åłħ": 8001,
      "ach": 8002,
      "ãģĭãģŃ": 8003,
      "ãĤ¢ãĤ¯ãĤ»": 8004,
      "ãģĮéĸĭå§ĭ": 8005,
      "ãĤ±ãĥ¼ãĥĸãĥ«": 8006,
      "æĩĲ": 8007,
      "ãĤĴä½¿ãģĦ": 8008,
      "ãģıãģªãĤĬ": 8009,
      "ãģ®æĶ»æĴĥ": 8010,
      "ãĤĴè¦ĭãģĽ": 8011,
      "å»ºéĢł": 8012,
      "ç³»ãģ®": 8013,
      "å°±èģ·": 8014,
      "è¡ĽéĸĢ": 8015,
      "æ®ĭãĤĬ": 8016,
      "ãģĦãģ¤ãģ§ãĤĤ": 8017,
      "ãĥĹãĥŃãĥĩãĥ¥ãĥ¼ãĤ¹": 8018,
      "èĦĩ": 8019,
      "ãĥĩãĤ£ãĤ¹ãĤ¯": 8020,
      "ãĥĸãĥ©ãĤ¸ãĥ«": 8021,
      "åĲ¸åıİ": 8022,
      "ãģĤãĤīãģĻãģĺ": 8023,
      "çĽ£è¦ĸ": 8024,
      "éĥ¨åĪĨãģ¯": 8025,
      "æĬµæĬĹ": 8026,
      "ãģ®è¢": 8027,
      "å£°åĦª": 8028,
      "ãģ®æľ¨": 8029,
      "çĽ¸ç¶ļ": 8030,
      "ãģ®çĹħ": 8031,
      "ãĥŀãĤ¯": 8032,
      "è©²å½ĵ": 8033,
      "æķ´çĲĨ": 8034,
      "ãģ®ãģ§ãģ¯ãģªãģı": 8035,
      "éĻĦ": 8036,
      "oy": 8037,
      "ake": 8038,
      "ãģĵãģ®åº": 8039,
      "ãģ®åĭķãģį": 8040,
      "ãĤĴçĶ¨ãģĦãģŁ": 8041,
      "åľ°ãĤĴ": 8042,
      "ä¿¡ä»°": 8043,
      "è¦ıåīĩ": 8044,
      "ãĥĥãĤ·ãĥ§": 8045,
      "æĺ¨å¹´": 8046,
      "ãģ®æıĲä¾Ľ": 8047,
      "éĢ±æľ«": 8048,
      "æ¯įè¦ª": 8049,
      "è»¢èģ·": 8050,
      "åİ³ãģĹãģĦ": 8051,
      "ãĤĭãģĵãģ¨ãģĮãģ§ãģįãģ¾ãģĻ": 8052,
      "éħįå¸ĥ": 8053,
      "ãģ¨ãģ®éĸ¢ä¿Ĥ": 8054,
      "ªç½®": 8055,
      "ãģ«ãģĤãĤĬ": 8056,
      "ä¼ļè¨Ī": 8057,
      "ãĥĿãĤ¹ãĥĪ": 8058,
      "çļ®èĨļ": 8059,
      "ä¸¦ãģ³": 8060,
      "ãģ®èĭ¥": 8061,
      "CS": 8062,
      "ãģ®åĭĿ": 8063,
      "¤į": 8064,
      "ãĥĴãĥĪ": 8065,
      "ãģ®åŃĲä¾Ľ": 8066,
      "æĿ±éĥ¨": 8067,
      "æĸ½å·¥": 8068,
      "âĸ¼": 8069,
      "æ³°": 8070,
      "è§£æĶ¾": 8071,
      "ä¸ĸçķĮãģ§": 8072,
      "ãĥĥãĤŃãĥ³ãĤ°": 8073,
      "æ±Ĺ": 8074,
      "ãĥ¡ãĥ³ãĤº": 8075,
      "åĲĪæł¼": 8076,
      "æ¶¼": 8077,
      "1969": 8078,
      "ĠãĤ«": 8079,
      "Ġ19": 8080,
      "çĭ©": 8081,
      "ãĥīãĥ©ãĤ´": 8082,
      "ãģªãĤĵãģ¨": 8083,
      "ãģĦãģ£ãģ±ãģĦ": 8084,
      "ãģ®ä¸Ģäºº": 8085,
      "ãĤ½ãĥªãĥ¥ãĥ¼ãĤ·ãĥ§ãĥ³": 8086,
      "æĦŁæĥ³": 8087,
      "å®īå¿ĥãģĹãģ¦": 8088,
      "ãĤªãĥ¼ãĤ¹ãĥĪãĥªãĤ¢": 8089,
      "ãĤ¢ãĤ¯ãĤ·ãĥ§ãĥ³": 8090,
      "éĽĩçĶ¨": 8091,
      "ãģĤãģĦ": 8092,
      "ä¼¸ãģ°": 8093,
      "çī¹åĪ¥ãģª": 8094,
      "ç§ģãģ®": 8095,
      "æ´ŀ": 8096,
      "1968": 8097,
      "å¤īãĤıãĤĬ": 8098,
      "èī²ãģ®": 8099,
      "ãģ¨çµĲå©ļ": 8100,
      "ãģ£ãģ¦ãģĦãģĨ": 8101,
      "éĻ¸ä¸Ĭ": 8102,
      "ãģĭãĤīãģ§ãģĻ": 8103,
      "ãģ©ãĤĵãģ©": 8104,
      "ãĥ¡ãĤŃãĤ·ãĤ³": 8105,
      "ãģ®æĶ¯æı´": 8106,
      "æĹĭ": 8107,
      "ãĤĴå§ĭãĤģãĤĭ": 8108,
      "ãģ®çĨ": 8109,
      "ãģĹãĤĵ": 8110,
      "å®¿æ³Ĭ": 8111,
      "ãĥŀãĤ¸": 8112,
      "ãĥĲãĥª": 8113,
      "ãĤĤå¤ļãģı": 8114,
      "å¼·åĪ¶": 8115,
      "ç·ļãģ¯": 8116,
      "ãĥŃãĥ¼ãĤº": 8117,
      "ãģ®èĪŀ": 8118,
      "ãģ§ãģįãģļ": 8119,
      "ãģĿãģĵãģĭãĤī": 8120,
      "ãģ®æİ¥": 8121,
      "ãĤĴæ±ºå®ļ": 8122,
      "ãģ¨èĢĥãģĪãĤīãĤĮãģ¦ãģĦãĤĭ": 8123,
      "è»įãģ®": 8124,
      "åł´ãģ«": 8125,
      "ãĥĦãĤ£": 8126,
      "ãĥ³ãĤ®": 8127,
      "ãģ®è©ķä¾¡": 8128,
      "ãģªãĤĵãģ§ãģĻ": 8129,
      "ãģŁãģ£ãģ·": 8130,
      "å°¿": 8131,
      "å½ĵç¤¾ãģ¯": 8132,
      "ãĤ¨ãĥ³ãĥī": 8133,
      "ãģ®ãģ§ãģ¯ãģªãģĦãģĭ": 8134,
      "åľ°åĽ³": 8135,
      "ãĤ¹ãĥĨãĥĥãĥĹ": 8136,
      "ä»ĺãģĳãģŁ": 8137,
      "ĠãĤµ": 8138,
      "ä¿Ŀå®Ī": 8139,
      "è¡ĽæĺŁ": 8140,
      "GM": 8141,
      "åıĸãĤĭ": 8142,
      "ãģ®å®Į": 8143,
      "ãģ·": 8144,
      "ãĤŃãĥ£ãĥ³ãĤ»": 8145,
      "éģķåıį": 8146,
      "ãĤĴæĪĲ": 8147,
      "1974": 8148,
      "ãģĨãģ¡ãģ«": 8149,
      "ink": 8150,
      "ç¢ºç«ĭ": 8151,
      "ãģ®ãĥ¡ãĥ³ãĥĲãĥ¼": 8152,
      "ãģ®æĶ¿æ²»": 8153,
      "æŃĮæīĭ": 8154,
      "é§Ĩãģĳ": 8155,
      "ãģ¨ãĤĤåĳ¼ãģ°": 8156,
      "ãģ«å¿ħè¦ģãģª": 8157,
      "69": 8158,
      "ãĥŁãĥ©": 8159,
      "ãģ®èŃ°": 8160,
      "çªģãģį": 8161,
      "æ·¡": 8162,
      "ãģ¾ãģķ": 8163,
      "LI": 8164,
      "åıĹé¨ĵ": 8165,
      "ãĤĴæĦıåĳ³ãģĻãĤĭ": 8166,
      "æĦŁæĥħ": 8167,
      "ãģĹãģ¦ãģ¿ãģ¦ãģıãģłãģķãģĦ": 8168,
      "250": 8169,
      "è¡ĮãģĨ": 8170,
      "ãģ«éĸ¢éĢ£": 8171,
      "æĸ½è¡Į": 8172,
      "åĲĮæĦı": 8173,
      "ãģ®ãģ§ãģ¯ãģªãģĦãģ§ãģĹãĤĩãģĨãģĭ": 8174,
      "ãģ®ãģłãģĮ": 8175,
      "ãģĵãģ¨ãģ«ãĤĪãĤĬ": 8176,
      "ãĥķãĤ£ãĥ¼ãĥ«": 8177,
      "åĨįåº¦": 8178,
      "ãĤĴéĽ¢": 8179,
      "éĥ¨ãģĮ": 8180,
      "ãģĹãģ¦ãģĹãģ¾ãģ£ãģŁ": 8181,
      "ä½ľãĤĭ": 8182,
      "ãĥķãĤ©ãĥŃãĥ¼": 8183,
      "è¨ºçĻĤ": 8184,
      "èªŃãĤĢ": 8185,
      "ãĥĴãĥŃ": 8186,
      "ãĥĳãĥ«": 8187,
      "Ġan": 8188,
      "ãģįãģ£ãģ¨": 8189,
      "éĺ²ãģĲ": 8190,
      "èŃľ": 8191,
      "ãĥİãĤ¦": 8192,
      "ãģĮãģĤãģ£ãģ¦": 8193,
      "å¤«å©¦": 8194,
      "éĿĴå¹´": 8195,
      "éĻµ": 8196,
      "ãĤĴæ¬": 8197,
      "ãĤıãģĸ": 8198,
      "æ³³": 8199,
      "åħ¥åŃ¦": 8200,
      "ction": 8201,
      "çĲĥåĽ£": 8202,
      "AB": 8203,
      "åĮºéĸĵ": 8204,
      "åĲĦåĽ½": 8205,
      "éĢ±åĪĬ": 8206,
      "ãĤĴæĮĩãģĻ": 8207,
      "ãĤ³ãĥł": 8208,
      "ãĤĴç¹°ãĤĬè¿Ķ": 8209,
      "ãĤ³ãĥ¬ãĤ¯ãĤ·ãĥ§ãĥ³": 8210,
      "èªŀãģ§": 8211,
      "ave": 8212,
      "1976": 8213,
      "ãģĤãĤĭãģĮ": 8214,
      "åŃĲãģ«": 8215,
      "ãģŁãģ¡ãģ®": 8216,
      "ãģłãģ£ãģŁãģ®ãģ§": 8217,
      "æ©ŁãģĮ": 8218,
      "å²Ĳéĺľ": 8219,
      "è¦³å®¢": 8220,
      "ãģĿãģ°": 8221,
      "ĠâĢľ": 8222,
      "ãĥĩãĥ¼ãĤ¿ãĥĻãĥ¼ãĤ¹": 8223,
      "ãģĦãģ¦ãģĬãĤĬãģ¾ãģĻ": 8224,
      "ãĤĴè¨Ńå®ļ": 8225,
      "å¹´ãģ«ãģĭãģĳãģ¦": 8226,
      "Wi": 8227,
      "çĩĥæĸĻ": 8228,
      "åı¬": 8229,
      "ews": 8230,
      "åªĴ": 8231,
      "ãĤªãĥ¼ãĥĲ": 8232,
      "Ġ.": 8233,
      "ãģ«å½±éŁ¿": 8234,
      "ãģ§æ§ĭæĪĲ": 8235,
      "ç§ĭçĶ°": 8236,
      "å±±æľ¬": 8237,
      "ãģ®æĽ´æĸ°": 8238,
      "æµª": 8239,
      "çµ±è¨Ī": 8240,
      "å°ī": 8241,
      "85": 8242,
      "çµĲåĲĪ": 8243,
      "æĬķæīĭ": 8244,
      "äººé¡ŀ": 8245,
      "ãĤ¨ãĥī": 8246,
      "èıĬ": 8247,
      "Ġ16": 8248,
      "åģ¶": 8249,
      "åľĭ": 8250,
      "è®": 8251,
      "æĺİæĹ¥": 8252,
      "æķ°å¤ļãģı": 8253,
      "éļ·": 8254,
      "æĥħåł±ãģĮ": 8255,
      "åįĴæ¥Ńå¾Į": 8256,
      "ĠæĹ¥": 8257,
      "ãģĦãģĦãģŃ": 8258,
      "ãģ®å¡": 8259,
      "ãģ¯ãģĿãģ®": 8260,
      "ãģĦãģ¦ãģĦ": 8261,
      "ä¸Ĭæĺł": 8262,
      "ãĥĺãĥ³": 8263,
      "ãģ¤ãģĳãģ¦": 8264,
      "WA": 8265,
      "ãģĿãĤīãģı": 8266,
      "ãģĤãĤĵ": 8267,
      "èģŀãģį": 8268,
      "æĥ³åĥı": 8269,
      "ãĥ©ãĤ¤ãĤº": 8270,
      "è¦³å¯Ł": 8271,
      "ãģ£ãģ¦ãģĦãģŁãģĮ": 8272,
      "ãģĬå®¢": 8273,
      "æ°ĳéĸĵ": 8274,
      "æĿ±æĹ¥æľ¬": 8275,
      "ãĢıãĢģ": 8276,
      "ãģ®åįĺ": 8277,
      "éĢıæĺİ": 8278,
      "ãĥ¡ãĥŃ": 8279,
      "ãĤ¤ãĥ³ãĥĨãĥªãĤ¢": 8280,
      "ãĤĴå§ĭãĤģãģŁ": 8281,
      "æŃ¯ç§ĳ": 8282,
      "åĪ¤å®ļ": 8283,
      "ãģ®å½ĵ": 8284,
      "åĬ£": 8285,
      "è»Ĭãģ¯": 8286,
      "ãĥ³ãĤ¼ãĥ«ãĤ¹": 8287,
      "æĶ¿åºľãģ¯": 8288,
      "æĬľãģį": 8289,
      "ãĥģãĥ³": 8290,
      "ãģłãģ¨ãģĦãģĨ": 8291,
      "è³ĩæºĲ": 8292,
      "ãģ¾ãģ£ãģŁãģı": 8293,
      "Ċĉĉĉĉ": 8294,
      "ãĤĴãĤµãĥĿãĥ¼ãĥĪ": 8295,
      "ãģ¨è¨ĢãĤıãĤĮãĤĭ": 8296,
      "ãģ®è£½åĵģ": 8297,
      "ãĤĴçµĲæĪĲ": 8298,
      "æĽ¸åºĹ": 8299,
      "ãĥĻãĥĥãĥĪ": 8300,
      "ãĤ°ãĥ©ãĥ³ãĥĹãĥª": 8301,
      "ãĥĿãĥ¼ãĤ¿": 8302,
      "åĲĪæĪĲ": 8303,
      "çı¾çĬ¶": 8304,
      "ãĤ¯ãĥ©ãĤ·ãĥĥãĤ¯": 8305,
      "é£ŁæĿĲ": 8306,
      "ãĤ¿ãĤ¤ãĥ¤": 8307,
      "æį¨ãģ¦": 8308,
      "700": 8309,
      "ãģ£ãģ¦ãģĹãģ¾ãģ£ãģŁ": 8310,
      "ãĥ¬ãĤ·ãĥĶ": 8311,
      "è«¸åĽ½": 8312,
      "ĠCl": 8313,
      "me": 8314,
      "æ©Łãģ¯": 8315,
      "ãģ¿ãģ¾ãģĹãģŁ": 8316,
      "ãģ«æ²¿": 8317,
      "éļİç´ļ": 8318,
      "ãĤ¹ãĤ¤ãĤ¹": 8319,
      "æĦŁåĭķ": 8320,
      "æĢĿæĥ³": 8321,
      "ãĤ»ãĤ¤": 8322,
      "ãĤĴéĻ¤ãģı": 8323,
      "ãģĹãģ¾ãģĽãĤĵ": 8324,
      "ãĤıãĤĮãģ¾ãģĻ": 8325,
      "åı¯èĥ½æĢ§ãģĮãģĤãĤĭ": 8326,
      "ãģ®èµ·": 8327,
      "åģµ": 8328,
      "ãĢį)": 8329,
      "çĻ½ãģĦ": 8330,
      "TT": 8331,
      "åħ¥èį·": 8332,
      "ãģ®éŁ³æ¥½": 8333,
      "ç®ĩæīĢ": 8334,
      "1977": 8335,
      "è¿Ķåĵģ": 8336,
      "åĮł": 8337,
      "ãĤĴæľī": 8338,
      "æĬ«éľ²": 8339,
      "çĤ¹ãģĮ": 8340,
      "æĢ§ãģ«": 8341,
      "èĩªæ²»ä½ĵ": 8342,
      "è²¿æĺĵ": 8343,
      "ãĥ³ãĤ¨": 8344,
      "ä¸įæĢĿèŃ°": 8345,
      "ãģĬãĤĪãģĿ": 8346,
      "èĤĿ": 8347,
      "ãĤ¹ãĤ±ãĤ¸ãĥ¥ãĥ¼ãĥ«": 8348,
      "è±Ĭå¯Įãģª": 8349,
      "Ġå°ı": 8350,
      "ãĥĸãĥ«ãĤ¯": 8351,
      "ãģ¨ãģķãĤĮãģŁ": 8352,
      "ãģ®ä»£è¡¨": 8353,
      "é«ĺæ©ĭ": 8354,
      "çĽ®ãģ§": 8355,
      "å´©å£Ĭ": 8356,
      "ãģ¯ãĤ¢": 8357,
      "ç²ĭ": 8358,
      "Java": 8359,
      "ä¿¡ãģĺ": 8360,
      "ãĤ¹ãĥł": 8361,
      "ãĤĦãĤī": 8362,
      "ãģĵãģ¨ãģĮãģĤãĤĬãģ¾ãģĻ": 8363,
      "ãģ©ãĤĵãģ©ãĤĵ": 8364,
      "ãģ°ãĤĵ": 8365,
      "ãĤĴåĩºãģĻ": 8366,
      "ĠAr": 8367,
      "åħ¼ãģŃ": 8368,
      "ãĥĵãĤ¨": 8369,
      "Ã©": 8370,
      "ãĤĤè¦ĭ": 8371,
      "ãĤĴè¶Ĭ": 8372,
      "ĠEx": 8373,
      "å¨ł": 8374,
      "ãĤĤãģĬ": 8375,
      "åĬ©ãģĳ": 8376,
      "ãĤ¨ãĤ³": 8377,
      "ãģĽãĤĵ": 8378,
      "ãģĨãĤĭ": 8379,
      "åħ¬éĸĭãģķãĤĮãģŁ": 8380,
      "æľĹ": 8381,
      "ãĤĴæ®º": 8382,
      "ãĥ©ãĥ¼ãĥ¡": 8383,
      "ãģĽãģªãģĦ": 8384,
      "ãĤĴæŀľãģŁãģĻ": 8385,
      "ãĤĴåĪ©çĶ¨ãģĹãģ¦": 8386,
      "è³ĩæľ¬": 8387,
      "ãģıãģªãĤĬãģ¾ãģĻ": 8388,
      "ãģªãģıãģªãĤĬ": 8389,
      "åħ¬è¡¨": 8390,
      "åĪ¶å®ļ": 8391,
      "ãĤĴå¤§": 8392,
      "ãģ®å¤ı": 8393,
      "Ġ13": 8394,
      "ãĤĴçĻºè¡¨ãģĹãģŁ": 8395,
      "ãĤ¸ãĥ£ãĥĥãĤ¯": 8396,
      "å¹´å¾Į": 8397,
      "ĠST": 8398,
      "ãģ§ãģĤãĤĭãģŁãĤģ": 8399,
      "ome": 8400,
      "ãģ¯ä½ķ": 8401,
      "éĽ»æºĲ": 8402,
      "ç³»çµ±": 8403,
      "ãģĤãģıãģ¾ãģ§": 8404,
      "ãĤ¹ãĥŀãĥ¼ãĥĪãĥķãĤ©ãĥ³": 8405,
      "æĮģãģ¤": 8406,
      "ãģ®çĸ": 8407,
      "ãĥ¬ãĥ«": 8408,
      "ãĥŀãĥªãĤ¢": 8409,
      "ãĥªãĥĴ": 8410,
      "ãģ¯çĦ¡": 8411,
      "ãĥªãĥ¼ãĥī": 8412,
      "åħ¬å¼ıãĤµãĤ¤ãĥĪ": 8413,
      "æ©Łç¨®": 8414,
      "ä»Ĭå¹´ãģ¯": 8415,
      "ä»¥åĨħãģ«": 8416,
      "åĩĦ": 8417,
      "ãĤīãģ£ãģŁ": 8418,
      "72": 8419,
      "éĢĥãģĴ": 8420,
      "æľĪãģ¾ãģ§": 8421,
      "åĬī": 8422,
      "ãĤĴãĥĢãĤ¦ãĥ³ãĥŃãĥ¼ãĥī": 8423,
      "ãģĶçĽ¸è«ĩ": 8424,
      "å¿ħè¦ģãģĮãģĤãĤĭ": 8425,
      "ãģ®ãģĭãģª": 8426,
      "å°ĭ": 8427,
      "ãģ®ç¦": 8428,
      "ãģŁãģ¡ãģ«": 8429,
      "ãĤĬãģŁãģĦ": 8430,
      "å¼ķçĶ¨": 8431,
      "ãĤĵãģ§ãĤĤ": 8432,
      "å¤§åŃ¦ãģ§": 8433,
      "ãģ®è²¬ä»»": 8434,
      "ãģ«éļĽ": 8435,
      "åĽŀãĤĭ": 8436,
      "ãģ©ãģĵãĤį": 8437,
      "ç·ĴçĶ³éĲĥç·ĴçĶ³": 8438,
      "é£²é£Ł": 8439,
      "ãģ®è£ı": 8440,
      "ç¬ł": 8441,
      "ãĥĩãĤ£ãĤº": 8442,
      "åĲ¹ãģį": 8443,
      "ãģ®åĭķçĶ»": 8444,
      "ãģĮè¡¨ç¤º": 8445,
      "ä¸Ńãģ§ãģĻ": 8446,
      "ãĤ¤ãĤ¹ãĥ©ãĤ¨ãĥ«": 8447,
      "ãģĦãģ¦ãĤĤ": 8448,
      "æĸ°äºº": 8449,
      "ype": 8450,
      "éįĭ": 8451,
      "è¿ĳãģ¥": 8452,
      "ãģĹãĤĪãģĨãģ¨": 8453,
      "ãģ®å¤§ãģįãģª": 8454,
      "ãĥĪãĥ¬ãĥ³ãĥī": 8455,
      "æ¡ĥ": 8456,
      "çĬ¶æħĭãģ§": 8457,
      "ãĥķãĤ©ãĥĪ": 8458,
      "ãģ®ãģ¿ãģ§": 8459,
      "è©¦ãģĹ": 8460,
      "ãĥ¼ãĥķãĤ¡": 8461,
      "ä¸Ĭä½į": 8462,
      "ool": 8463,
      "åĮ¹": 8464,
      "ãģ®æķĻèĤ²": 8465,
      "è¨¼æĭł": 8466,
      "åħ±çĶ£åħļ": 8467,
      "æ¸Īãģ¿": 8468,
      "å¹¡": 8469,
      "ai": 8470,
      "ãĥ¯ãĥ¼ãĥ«ãĥīãĤ«ãĥĥãĥĹ": 8471,
      "æµ©": 8472,
      "æľŁãģ¯": 8473,
      "ãĥĥãĥĨ": 8474,
      "åīĽ": 8475,
      "æĤŁ": 8476,
      "ãģ®çģ": 8477,
      "ãģ®ãģ¨ãģĵãĤį": 8478,
      "ãģĮè¡ĮãĤıãĤĮãĤĭ": 8479,
      "ãĤ±ãĥ¼ãĤŃ": 8480,
      "ult": 8481,
      "éĲĥç·ĴçĶ³éĲĥç·ĴçĶ³": 8482,
      "ãĥĥãĤ·": 8483,
      "è¡¨æĥħ": 8484,
      "ä½ľåĵģãģ¯": 8485,
      "ãĤĴæĮĩå®ļ": 8486,
      "ãĤĴæ¸¡": 8487,
      "è©³ç´°ãģ¯": 8488,
      "ãĥļãĥ¼ãĤ¹": 8489,
      "ä¼ļãģ«": 8490,
      "é¢¨åĳĤ": 8491,
      "çĽ®ãģĮ": 8492,
      "å¹´ä»£ãģ«": 8493,
      "ãĤ¢ãĥ¡ãĥªãĤ«ãģ®": 8494,
      "å°»": 8495,
      "åħĪè¡Į": 8496,
      "ãĥģãĤ§ãĥ¼ãĥ³": 8497,
      "éģºè·¡": 8498,
      "ãĤ¨ãĤ¸": 8499,
      "åĬĽãģª": 8500,
      "æīĭä¼Ŀ": 8501,
      "éĸīéİĸ": 8502,
      "ä¿®éģĵ": 8503,
      "çī©çĲĨ": 8504,
      "ãĥģãĥ¼ãĥłãģ¯": 8505,
      "æ¬¡ãģĦãģ§": 8506,
      "ãĤĴç«ĭãģ¦": 8507,
      "æĽ¸ãģĦãģŁ": 8508,
      "æ²¢å±±": 8509,
      "ãĤµãĤ¦": 8510,
      "ãģ®åĩ¦": 8511,
      "ãģĭãĤıãģĦãģĦ": 8512,
      "ãĥ¬ãĤ¹ãĥĪãĥ©ãĥ³": 8513,
      "ãģ®åĬł": 8514,
      "ãĥĥãĤµãĥ¼ãĤ¸": 8515,
      "TO": 8516,
      "ãĤĤãģ£ãģ¨ãĤĤ": 8517,
      "ode": 8518,
      "åĭ²": 8519,
      "ãĥŀãĥ³ãĤ·ãĥ§ãĥ³": 8520,
      "ãģ®åįĬ": 8521,
      "å¥®": 8522,
      "ãģªãģ©ãģĮãģĤãĤĭ": 8523,
      "ãģŁãĤĵ": 8524,
      "1964": 8525,
      "åŁ·è¡Į": 8526,
      "åĩºãģķãĤĮãĤĭ": 8527,
      "ãģ«ä½¿": 8528,
      "æĥħåł±ãģ¯": 8529,
      "è¤ĩæķ°ãģ®": 8530,
      "ãģ®èħ": 8531,
      "åĪĿãĤģ": 8532,
      "æİ¨å®ļ": 8533,
      "ãĤ»ãĥĥãĤ·ãĥ§ãĥ³": 8534,
      "ãĤĴæĢĿãģĦ": 8535,
      "ãĤ·ãĥ§ãĥ¼": 8536,
      "ãģŁãĤģãģ«ãģ¯": 8537,
      "äºĪåĤĻ": 8538,
      "ãģªãģ©ãģĭãĤī": 8539,
      "ãģĭãĤĴ": 8540,
      "é«ĺæł¡çĶŁ": 8541,
      "ower": 8542,
      "åħįè¨±": 8543,
      "ä¼¼ãģŁ": 8544,
      "ãĤıãĤīãģļ": 8545,
      "åł´ãģ¯": 8546,
      "ãģ®åģ¥": 8547,
      "å·£": 8548,
      "ãģ®åĢ¤": 8549,
      "åĩºæĿ¥ãģªãģĦ": 8550,
      "è¦ıç´Ħ": 8551,
      "å¾³å·Ŀ": 8552,
      "ãĤµãĤ¹": 8553,
      "ãģĮçı¾": 8554,
      "åľ¨åº«": 8555,
      "å®¶åħ·": 8556,
      "ä¸¡è¦ª": 8557,
      "åħ·åĲĪ": 8558,
      "ãģ¨ãģĦãģĪãģ°": 8559,
      "æ±ģ": 8560,
      "åĢ«": 8561,
      "æıĲæĲº": 8562,
      "çµĮéģİ": 8563,
      "ss": 8564,
      "ä¸ĢåĪĩ": 8565,
      "ãģĤãģ®": 8566,
      "è¡Įãģ£ãģŁ": 8567,
      "ãģłãģ£ãģ¦": 8568,
      "åľ°å¸¯": 8569,
      "ãģ®çª": 8570,
      "æİ¢ãģĹ": 8571,
      "ãģ®çĶŁæ´»": 8572,
      "ãĤĴçĦ¡": 8573,
      "ãĥĲãĥĥãĥĨ": 8574,
      "ãĤ¸ãĤ¢ãĥł": 8575,
      "æł½åŁ¹": 8576,
      "å¸Ĥãģ«": 8577,
      "å¹´ãģĭãĤīãģ¯": 8578,
      "å¥½è©ķ": 8579,
      "èĦ±æ¯Ľ": 8580,
      "ence": 8581,
      "ãĤĴæĮĻãģĴ": 8582,
      "åīįãģĭãĤī": 8583,
      "ãĤ³ãĥ¼ãĥĬãĥ¼": 8584,
      "(^": 8585,
      "ĠÌģ": 8586,
      "å¸Ĥè¡Ĺ": 8587,
      "åĲįãģ§": 8588,
      "çĦ¦": 8589,
      "ãĤĬãģ§": 8590,
      "ãĤĴåĭĻãĤģ": 8591,
      "åĲĳãģĳãģ®": 8592,
      "ãģ¨ãģĦãģĨãĤĤãģ®": 8593,
      "ãĤĵãģ§ãģĦãģ¾ãģĻ": 8594,
      "1967": 8595,
      "çµĲãģ³": 8596,
      "èĨ¨": 8597,
      "ä¾µæĶ»": 8598,
      "iPad": 8599,
      "ãĤµãĥł": 8600,
      "è¾°": 8601,
      "è§£æŀĲ": 8602,
      "ãģĹãģĭãģĹãģªãģĮãĤī": 8603,
      "å¹³æĹ¥": 8604,
      "Ġit": 8605,
      "ãĥĢãĥ¡": 8606,
      "ãģĪãģ¦ãģĦãģ¾ãģĻ": 8607,
      "ãĥĸãĥ¬ãĥ¼ãĤŃ": 8608,
      "ãĤ¯ãĤ¤": 8609,
      "ãĥĹãĥªãĥ³ãĥĪ": 8610,
      "ãĥĹãĥ©ãĤ°": 8611,
      "ãĥĻãĥĥãĥī": 8612,
      "ãĤĴçł´": 8613,
      "ãģ¨ãģĹãģ¦æ´»åĭķ": 8614,
      "åıĶ": 8615,
      "ãģĭãģĳãĤĭ": 8616,
      "åı¤ãģı": 8617,
      "ãĤĴè¦ĭãģŁ": 8618,
      "åķıãģĦ": 8619,
      "ãģ®åĮº": 8620,
      "ãģĬãģĬ": 8621,
      "ãģ®ç§ģ": 8622,
      "ãģ§ãģĤãģ£ãģ¦ãĤĤ": 8623,
      "èĢħãģĭãĤī": 8624,
      "ãģĮæ±ºå®ļ": 8625,
      ")/": 8626,
      "åľ°ãģ§": 8627,
      "ãģĮåı¯èĥ½ãģ§ãģĻ": 8628,
      "ãģ®å°İ": 8629,
      "app": 8630,
      "ãĥĹãĥ¬ãĥŁãĤ¢ãĥł": 8631,
      "ç§»è»¢": 8632,
      "ä¸īèı±": 8633,
      "ç¿Ĵæħ£": 8634,
      "ä»ĺå±ŀ": 8635,
      "ãĤĴæĭĽ": 8636,
      "èħĲ": 8637,
      "ãĤĴçĶŁãģ¿": 8638,
      "è¨Ĥ": 8639,
      "å·Ŀå´İ": 8640,
      "æ²Ļ": 8641,
      "éĢļç®Ĺ": 8642,
      "ãģĻãģİãģ¦": 8643,
      "ãģ®ç«¶": 8644,
      "1944": 8645,
      "1940": 8646,
      "ãģĬå±Ĭãģĳ": 8647,
      "ãĤ³ãĥĶãĥ¼": 8648,
      "ãģĿãĤĮãģĭãĤī": 8649,
      "ãĤ¤ãĥ«ãĥ©ãĥ³ãĥī": 8650,
      "å½«": 8651,
      "åĪĨãģĭãĤīãģªãģĦ": 8652,
      "ä¸īéĥİ": 8653,
      "æĦĽçŁ¥çľĮ": 8654,
      "åħĥãģ«": 8655,
      "ĠSer": 8656,
      "åĲ¾": 8657,
      "ãĤ¹ãĥ¼ãĥĳãĥ¼": 8658,
      "ãĤĴéģ¸ãģ¶": 8659,
      "äºĭåīį": 8660,
      "Ĵ°": 8661,
      "ç©įãģ¿": 8662,
      "ãĥ¯ãĥ¼ãĤ¯ãĤ·ãĥ§ãĥĥãĥĹ": 8663,
      "ãģĺãĤīãĤĮãģŁ": 8664,
      "ãģ¾ãģĤ": 8665,
      "man": 8666,
      "ãĥ©ãĤ¹ãĥĪ": 8667,
      "èµ·ãģįãģŁ": 8668,
      "ãĤĴæ³": 8669,
      "æłĹ": 8670,
      "ãĤĴæĬľ": 8671,
      "ä¸įèī¯": 8672,
      "ãģ®åħµ": 8673,
      "Ad": 8674,
      "ãģ®ç½": 8675,
      "Word": 8676,
      "ä½įãģ¯": 8677,
      "ãĥģãĥĥãĤ¯": 8678,
      "ãĥ³ãĤ·ãĥ¥": 8679,
      "ãĤ³ãĥŁãĥĥãĤ¯": 8680,
      "www": 8681,
      "ãĤŃãĥ©": 8682,
      "è©³ãģĹãģı": 8683,
      "ãĤ¸ãĥ£ãĤº": 8684,
      "ãģ®åĳ³": 8685,
      "ãĤ°ãĥ©ãĥ³ãĥī": 8686,
      "ãĥ¡ãĤ½": 8687,
      "çĸ«": 8688,
      "ãģ¿ãĤĭãģ¨": 8689,
      "ãĥĬãĤ¹": 8690,
      "çĥĪ": 8691,
      "ãĥ¬ãĥ¼ãĤ·": 8692,
      "å§ĭãģ¾ãĤĬ": 8693,
      "ãĤ³ãĥ¼ãĥĩãĤ£ãĥ³ãĤ°": 8694,
      "ãģªãĤīãģ§ãģ¯": 8695,
      "ãĤ³ãĥ¼ãĥĪ": 8696,
      "ç·ıéģ¸æĮĻ": 8697,
      "ãģĮä½¿çĶ¨": 8698,
      "ãĥľãĥ©": 8699,
      "ãĥªãĥĭãĥ¥ãĥ¼ãĤ¢ãĥ«": 8700,
      "ä¼º": 8701,
      "éĸ¢å¿ĥ": 8702,
      "èĮ¨": 8703,
      "Ķè¼ĥ": 8704,
      "ãĥ¼ãĥŁãĥ³ãĤ°": 8705,
      "åĿĬ": 8706,
      "æĿ±æµ·": 8707,
      "ãģ«éĻĲ": 8708,
      "æĿ¾æľ¬": 8709,
      "æ¥µãĤģãģ¦": 8710,
      "ãĤ¹ãĥĪãĥªãĥ¼ãĥĪ": 8711,
      "ãģ«å¤§": 8712,
      "çµĤãĤı": 8713,
      "å¹»": 8714,
      "å½¹ç«ĭãģ¤": 8715,
      "ãĥķãĥ¼ãĥī": 8716,
      "åŀĤ": 8717,
      "ãģ«ãģ¾ãģ§": 8718,
      "å¾Įè¿°": 8719,
      "ãĤĴæī±": 8720,
      "çı¾åľ¨ãĤĤ": 8721,
      "ãģ®åĬ¹æŀľ": 8722,
      "ãģĮåŃĺåľ¨ãģĻãĤĭ": 8723,
      "ãĥ¼ãĥļ": 8724,
      "æĺİç¢º": 8725,
      "åĲĮä¸Ģ": 8726,
      "å½¢çĬ¶": 8727,
      "åħµåĻ¨": 8728,
      "ãĥķãĤ£ãĥ³": 8729,
      "åĭĻãĤģãģŁ": 8730,
      "å®°": 8731,
      "ãĢĩ": 8732,
      "ãģ®çĴ°": 8733,
      "æĻĤä»£ãģ¯": 8734,
      "âĪĴ": 8735,
      "è¡Ŀçªģ": 8736,
      "Pro": 8737,
      "ãģįãģ¡": 8738,
      "ãĥĴãĥ«": 8739,
      "èĤª": 8740,
      "ãĤĴãģ¤ãģĳ": 8741,
      "ãĥĳãĥ¼ãĥĦ": 8742,
      "è£ľåĬ©": 8743,
      "æ»Ŀ": 8744,
      "èĬ³": 8745,
      "ft": 8746,
      "Ġare": 8747,
      "åĩºä¼ļãģĦ": 8748,
      "ãĤ®ãĥķãĥĪ": 8749,
      "çµĲå©ļå¼ı": 8750,
      "è¡£è£ħ": 8751,
      "ãģ§å¤§": 8752,
      "åĨįéĸĭ": 8753,
      "ãĥŀãĤ¬ãĤ¸ãĥ³": 8754,
      "(ãĢĮ": 8755,
      "éĻ³": 8756,
      "éģĭåĸ¶ãģĻãĤĭ": 8757,
      "ãĤ¦ãĤ§ãĥ«": 8758,
      "è¿·æĥĳ": 8759,
      "æŃ¦åĻ¨": 8760,
      "ãĤ³ãĥŀãĥ³ãĥī": 8761,
      "ãģ®æ¿": 8762,
      "orld": 8763,
      "æĪĲæŀľ": 8764,
      "ãģ¨ãģķãĤĮ": 8765,
      "ãĤıãģĭ": 8766,
      "ãĥĸãĥ¬ãĥĥãĥĪ": 8767,
      "79": 8768,
      "ãĤ³ãĥ¼ãĥĴãĥ¼": 8769,
      "èģ·æ¥Ń": 8770,
      "ãģ®æ°ĹæĮģãģ¡": 8771,
      "å¾ĹæĦı": 8772,
      "ãĤ¢ãĥ¼": 8773,
      "ãģĿãģĨãģł": 8774,
      "ãĥĩãĥ³": 8775,
      "ãģĵãĤĮãģĭãĤīãĤĤ": 8776,
      "åł´åĲĪãģĮãģĤãĤĬãģ¾ãģĻ": 8777,
      "éģİãģĶãģĻ": 8778,
      "ãĤ¨ãĥįãĥ«ãĤ®": 8779,
      "åĪĨå¸ĥ": 8780,
      "ata": 8781,
      "ãģ¤ãģĦãģ«": 8782,
      "own": 8783,
      "å¡Ĺè£ħ": 8784,
      "ãĥ©ãĤ¦ãĥ³ãĥī": 8785,
      "åħ¨ç±³": 8786,
      "æ´»åĭķãĤĴ": 8787,
      "ãģ®ãĤ¤": 8788,
      "ãģŁãģ£ãģŁ": 8789,
      "åıįæĺł": 8790,
      "ä»ķäºĭãĤĴ": 8791,
      "ãģ®å¿ħ": 8792,
      "ä¸ĸè©±": 8793,
      "ãģ«åħ¥ãģ£ãģ¦": 8794,
      "ãĥ¼ãĥªãĥ¼": 8795,
      "ãĥķãĤ¡ãĥ¼": 8796,
      "ãĤĴè©¦": 8797,
      "çŁŃãģĦ": 8798,
      "å¯¾ç«ĭ": 8799,
      "åĴĮæŃĮ": 8800,
      "ãĤıãģĽãģ¦": 8801,
      "ĠãĤª": 8802,
      "ãĤĴæĿ": 8803,
      "æŃ£è¦ı": 8804,
      "ãĥ³ãĥĨãĥĬãĥ³ãĤ¹": 8805,
      "åķıåĲĪãģĽ": 8806,
      "æĹ¥æľ¬ä»£è¡¨": 8807,
      "ãĤ¿ãĥĥãĥģ": 8808,
      "ãģ®åĸ¶": 8809,
      "Ġ14": 8810,
      "ä»¥å¤ĸãģ«ãĤĤ": 8811,
      "ç¬ĳãģĦ": 8812,
      "ãĤ¨ãĤ¹ãĥĨ": 8813,
      "è©¦åĲĪãģ«åĩºåł´": 8814,
      "éģĶãģ¯": 8815,
      "ãģ®ãĥĩãĤ¶ãĤ¤ãĥ³": 8816,
      "ç·łçµĲ": 8817,
      "ãģĦãģŁãģłãģĳãĤĭ": 8818,
      "ãĤĴä»£è¡¨": 8819,
      "ãĤĴæııãģĦãģŁ": 8820,
      "ä½¿ãģĦæĸ¹": 8821,
      "ãģ®èĸ": 8822,
      "ç½®ãģį": 8823,
      "OB": 8824,
      "ãĤĪãģĨãĤĦãģı": 8825,
      "76": 8826,
      "ãĤ¸ãĥ£ãĥ¼ãĥĬ": 8827,
      "ãĤĴå®Łè¡Į": 8828,
      "ãĥŀãĥĥãĥĹ": 8829,
      "ãģĵãĤĮãĤĤ": 8830,
      "ãĥŁãĥ«": 8831,
      "Fi": 8832,
      "ãĤĴç¶ŃæĮģ": 8833,
      "ãĥ³ãĥ¢": 8834,
      "sp": 8835,
      "ãĤĴæŃ£": 8836,
      "ãģ®éĩį": 8837,
      "ãĤĴå¯¾è±¡": 8838,
      "çħ®": 8839,
      "ãģ©ãĤĬ": 8840,
      "ãĥ³ãĥĳãĤ¹": 8841,
      "æĶ¾é¡Į": 8842,
      "æļĩ": 8843,
      "éĿ¢ãģ§": 8844,
      "ãģ¯ç´Ħ": 8845,
      "eat": 8846,
      "ãĤĦãģ¾": 8847,
      "ãĤĴä½¿çĶ¨ãģĹãģŁ": 8848,
      "æ°ĳåľ°": 8849,
      "æ¸¬å®ļ": 8850,
      "ãģ«éĻ¥": 8851,
      "åºĥãģĴ": 8852,
      "ãĥªãĥİ": 8853,
      "æīĢãģ¯": 8854,
      "86": 8855,
      "åĪĨåī²": 8856,
      "ãģ®ç¹": 8857,
      "ãģ®å»ºè¨Ń": 8858,
      "ãĥŁãĥĥãĤ·ãĥ§ãĥ³": 8859,
      "ãĥķãĥĥãĥĪ": 8860,
      "ãģĮåºĥãģĮ": 8861,
      "é¯": 8862,
      "æ°ĳåĽ½": 8863,
      "æľĢéģ©ãģª": 8864,
      "icros": 8865,
      "ãģĦãĤįãĤĵãģª": 8866,
      "ç¨²çĶ°": 8867,
      "ãģ®ç·ı": 8868,
      "ãĤĢãģĹãĤį": 8869,
      "éĽ¢å©ļ": 8870,
      "ãĤ¸ãĥ¡ãĥ³ãĥĪ": 8871,
      "å®®å´İ": 8872,
      "å¦Ĭå¨ł": 8873,
      "ãģ®è£ľ": 8874,
      "ãģ®ãģ¡ãģ«": 8875,
      "ãĤ³ãĥ¢": 8876,
      "æĢ§ãģ¨": 8877,
      "çĶŁãģįãĤĭ": 8878,
      "ãģĭãĤīãģªãĤĭ": 8879,
      "ç½°": 8880,
      "è©³ãģĹãģıãģ¯": 8881,
      "èĺĩ": 8882,
      "æħİ": 8883,
      "89": 8884,
      "ãĤĴä¸İãģĪãģŁ": 8885,
      "ãģ«æĮĩå®ļ": 8886,
      "éĸĭåĤ¬ãģķãĤĮãģŁ": 8887,
      "ãĤĤãģ¨ãĤĤãģ¨": 8888,
      "å®ŁéļĽãģ«ãģ¯": 8889,
      "ãĤ¹ãĤ¿ãĤ¸ãĤ¢ãĥł": 8890,
      "æķ°ãĤĴ": 8891,
      "èĩ¨æĻĤ": 8892,
      "çĪĨçĻº": 8893,
      "âĶģâĶģâĶģâĶģâĶģâĶģâĶģâĶģ": 8894,
      "èª¿çĲĨ": 8895,
      "æĴ¤éĢĢ": 8896,
      "ãĤ¿ãĥĥãĤ¯": 8897,
      "èĩªçĶ±ãģ«": 8898,
      "ç·¨éĽĨéĥ¨": 8899,
      "ç¨ļ": 8900,
      "ãĤĴãĥĨãĥ¼ãĥŀ": 8901,
      "ãĥŀãĤ¦": 8902,
      "1965": 8903,
      "é¦´": 8904,
      "æĪĳãģĮ": 8905,
      "ä»ĺãģĳãĤīãĤĮãģŁ": 8906,
      "TBS": 8907,
      "æĺİãĤīãģĭãģ«": 8908,
      "ãģĭãģ¤ãģ¦ãģ¯": 8909,
      "ãģ®ç§ĺ": 8910,
      "çŃĳ": 8911,
      "ãģ®å½¹åī²": 8912,
      "ãģ«æĲº": 8913,
      "æ¯İæľĪ": 8914,
      "ä»Ĭå¹´ãĤĤ": 8915,
      "mer": 8916,
      "let": 8917,
      "å§ĭãģ¾ãģ£ãģŁ": 8918,
      "Press": 8919,
      "ãĥĵãĤ¿": 8920,
      "ãģ®ãĤµãĥ¼ãĥĵãĤ¹": 8921,
      "oh": 8922,
      "åĲĳãģĳãģ«": 8923,
      "ãģĻãĤĭãģ¨ãģį": 8924,
      "ãĤ¨ãĥĩãĤ£": 8925,
      "ãģ®éģĵ": 8926,
      "åħ¥ãĤĮãģ¦": 8927,
      "oud": 8928,
      "åıĭäºº": 8929,
      "ãģ«åĬłãģĪãģ¦": 8930,
      "æ£ĭ": 8931,
      "æĹ¥ãģĮ": 8932,
      "ãĤĴåħ¬éĸĭ": 8933,
      "ãĤģãĤīãĤĮ": 8934,
      "åįĺçĭ¬": 8935,
      "æī¿èªį": 8936,
      "ãģ®ä¸Ĭãģ«": 8937,
      "ãĤĴå®ĪãĤĭ": 8938,
      "ãĥĨãĥĥãĥī": 8939,
      "æº¢": 8940,
      "ãĤļ": 8941,
      "ãģ§ä¸Ģ": 8942,
      "åıĸãĤĬçµĦ": 8943,
      "ãģ®ç¯Ħ": 8944,
      "ãģ¶ãĤĵ": 8945,
      "çĽ¸æīĭãģ«": 8946,
      "ãĤĴå·¡": 8947,
      "ãĥĸãĥ¬ãĤ¤": 8948,
      "åħ±æ¼Ķ": 8949,
      "ç¢ºãģĭãģ«": 8950,
      "ä¸įæŃ£": 8951,
      "éĢ£ãĤĮãģ¦": 8952,
      "éĻ¶": 8953,
      "ãĤĴæºĢãģŁ": 8954,
      "ä½ľè©ŀ": 8955,
      "ãĤĵãģ§ãģĻãģĮ": 8956,
      "è©±ãģĻ": 8957,
      "ãģ®èį": 8958,
      "ãĤ¢ãĥĥãĥĹãĥĩãĥ¼ãĥĪ": 8959,
      "ãĥĵãĥ¼ãĥģ": 8960,
      "ãĥĪãĥ©ãĥ³ãĤ¹": 8961,
      "1930": 8962,
      "ãĤ¢ãĥŁ": 8963,
      "ä¸īéĩį": 8964,
      "ä¸ĭãģĴ": 8965,
      "ãģ®åį±": 8966,
      "ãĥĪãĥ³ãĥįãĥ«": 8967,
      "çłĶç©¶ç§ĳ": 8968,
      "ãĤ®ãĥªãĤ·ãĥ£": 8969,
      "ãĥŁãĤµãĤ¤ãĥ«": 8970,
      "ãģĵãģ¨ãģªãģı": 8971,
      "ãģ±": 8972,
      "ãĥ¢ãĥª": 8973,
      "å¾ĵæ¥Ńåĵ¡": 8974,
      "ãģ²ãĤį": 8975,
      "ãģ®èĳĹä½ľ": 8976,
      "ition": 8977,
      "åĭ¢åĬĽ": 8978,
      "æŃĮè©ŀ": 8979,
      "æĴ²": 8980,
      "çĭ¬çī¹": 8981,
      "åĵ²åŃ¦": 8982,
      "ãģķãĤĮãģ¦ãģĦãĤĭãģĮ": 8983,
      "ãĥĿãĥ«": 8984,
      "æľ¬ä½ĵ": 8985,
      "ãĤ¸ãĥ£ãĥ³ãĥĹ": 8986,
      "ãĥģãĥ¥ãĤ¢": 8987,
      "åĹ": 8988,
      "éĢ£ãĤĮ": 8989,
      "æ°ĹãĤĴ": 8990,
      "ãĤ¢ãĤ«ãĥĩãĥŁãĥ¼": 8991,
      "ãģķãģĽãģ¦éłĤãģįãģ¾ãģĻ": 8992,
      "ãģĭãģ®": 8993,
      "åīĬæ¸Ľ": 8994,
      "1966": 8995,
      "RA": 8996,
      "ãģªãĤĬãģ¾ãģĽãĤĵ": 8997,
      "ãģ«å°±ä»»ãģĹãģŁ": 8998,
      "ç·Ĭå¼µ": 8999,
      "):": 9000,
      "ãģĿãĤĮãģ§": 9001,
      "Ex": 9002,
      "åħ¥ç¤¾": 9003,
      "è¬İ": 9004,
      "ãĤ«ãĥ³": 9005,
      "ãĥĹãĥ©ãĤ¤ãĥĻãĥ¼ãĥĪ": 9006,
      "åıİå®¹": 9007,
      "æľªæºĢ": 9008,
      "åĮĹæľĿé®®": 9009,
      "æĶ»çķ¥": 9010,
      "ãģ¾ãĤĵ": 9011,
      "è»įãģ«": 9012,
      "ãģ®éŁ³": 9013,
      "ãģ¤ãĤĤãĤĬ": 9014,
      "ãģĻãĤĭãģĵãģ¨ãģ«ãģªãģ£ãģŁ": 9015,
      "ãģĻãĤĭãĤĤ": 9016,
      "éĽ»åĭķ": 9017,
      "ãĥķãĤ¡ãĥ¼ãĤ¹ãĥĪ": 9018,
      "ä¿®äºĨ": 9019,
      "çŁ¥ãĤīãģªãģĦ": 9020,
      "ä½ĵèª¿": 9021,
      "ãĤ¢ãĥ¼ãĤ«": 9022,
      "vers": 9023,
      "åŁ¼çİīçľĮ": 9024,
      "ãĤĴæ·±": 9025,
      "ãĥıãĥ³ãĤ¬": 9026,
      "æĪ¦éļĬ": 9027,
      "å¹´ä»¥éĻį": 9028,
      "ãģ¨ãģĦãģĨãģ®ãģĮ": 9029,
      "ãģ¨ãģĦãģĨãģĭ": 9030,
      "ãĥīãĥ©ãĥķãĥĪ": 9031,
      "ãĥŀãĥįãĥ¼ãĤ¸ãĥ£": 9032,
      "æģ¯åŃĲ": 9033,
      "icrosoft": 9034,
      "ãģ®æ¶Ī": 9035,
      "æĸĩåº«": 9036,
      "ãģĦãģŁãģłãģįãģ¾ãģĹãģŁ": 9037,
      "YO": 9038,
      "ãĥĲãĥĪãĥ«": 9039,
      "åķĵ": 9040,
      "åıĻ": 9041,
      "ãģ®åħī": 9042,
      "çİĩãģĮ": 9043,
      "çŃĭèĤī": 9044,
      "ãĥªãĥ¼ãĥ«": 9045,
      "åķĨåºĹ": 9046,
      "ãĥ¢ãĤ¹ãĤ¯": 9047,
      "å¹³æĸ¹": 9048,
      "æĥĳæĺŁ": 9049,
      "è²¨çī©": 9050,
      "æķ°åŃĹ": 9051,
      "ä¼ļç¤¾ãģ®": 9052,
      "ãĥĻãĥ³ãĥģãĥ£": 9053,
      "åĬĩåĽ£": 9054,
      "IV": 9055,
      "ãĥķãĤ¸ãĥĨãĥ¬ãĥĵ": 9056,
      "åį±æ©Ł": 9057,
      "ãģĸãĤĭ": 9058,
      "åħ¨ãģ¦ãģ®": 9059,
      "¨æĭ": 9060,
      "ãĥŃãĥ¼ãĥ³": 9061,
[...]
